[PAD]
[UNK]
[CLS]
[SEP]
[MASK]
the
of
and
to
a
in
is
it
you
that
he
was
for
on
are
with
as
i
his
they
be
at
one
have
this
from
or
had
by
not
but
some
what
there
we
can
out
other
were
all
your
when
up
use
how
said
an
each
she
which
do
their
time
if
will
way
about
many
then
them
would
write
like
so
these
her
long
make
thing
see
him
two
has
look
more
day
could
go
come
did
my
no
most
who
over
know
than
call
first
may
down
should
been
now
find
any
new
work
part
take
get
place
made
after
back
only
me
our
under
very
account
bank
money
credit
card
payment
transfer
wire
deposit
withdraw
balance
loan
mortgage
invest
stock
verify
confirm
update
secure
password
login
access
unauthorized
suspicious
blocked
locked
expired
compromised
urgent
immediately
warning
alert
critical
emergency
act
limited
expire
deadline
hurry
fast
congratulations
winner
prize
reward
free
offer
click
link
download
install
open
attachment
dear
customer
valued
member
user
recipient
notification
important
notice
attention
required
action
response
reply
forward
submit
http
https
www
com
org
net
url
website
email
phone
number
address
name
social
security
ssn
pin
code
otp
token
authentication
malware
virus
trojan
ransomware
phishing
scam
fraud
identity
theft
steal
hack
breach
data
personal
information
private
confidential
##ing
##tion
##ed
##ly
##er
##al
##ment
##ness
##ous
##ive
##able
##ful
##less
##ity
##ance
##ence
##ist
##ism
##ize
##fy
un##
re##
pre##
dis##
mis##
over##
under##
0
1
2
3
4
5
6
7
8
9
.
,
!
?
:
;
-
'
"
(
)
/
@
$
%
&
#
*
+
=
[
]
{
}
|
\
government
irs
tax
refund
federal
agency
police
court
legal
lawsuit
warrant
arrest
package
delivery
shipping
tracking
order
amazon
apple
google
microsoft
paypal
netflix
facebook
instagram
whatsapp
telegram
signal
bitcoin
crypto
wallet
exchange
blockchain
nft
mining
romance
dating
relationship
love
meet
profile
job
employment
salary
income
opportunity
remote
lottery
sweepstakes
drawing
claim
processing
fee
donation
charity
disaster
relief
fund
campaign
insurance
policy
coverage
premium
benefit
medical
health
prescription
pharmacy
doctor
hospital
tech
support
computer
device
software
hardware
subscription
renewal
cancel
terminate
suspend
restore
##aa
##ab
##ac
##ad
##ae
##af
##ag
##ah
##ai
##aj
##ak
##am
##an
##ao
##ap
##aq
##ar
##as
##at
##au
##av
##aw
##ax
##ay
##az
##ba
##bb
##bc
##bd
##be
##bf
##bg
##bh
##bi
##bj
##bk
##bl
##bm
##bn
##bo
##bp
##bq
##br
##bs
##bt
##bu
##bv
##bw
##bx
##by
##bz
##ca
##cb
##cc
##cd
##ce
##cf
##cg
##ch
##ci
##cj
##ck
##cl
##cm
##cn
##co
##cp
##cq
##cr
##cs
##ct
##cu
##cv
##cw
##cx
##cy
##cz
##da
##db
##dc
##dd
##de
##df
##dg
##dh
##di
##dj
##dk
##dl
##dm
##dn
##do
##dp
##dq
##dr
##ds
##dt
##du
##dv
##dw
##dx
##dy
##dz
##ea
##eb
##ec
##ee
##ef
##eg
##eh
##ei
##ej
##ek
##el
##em
##en
##eo
##ep
##eq
##es
##et
##eu
##ev
##ew
##ex
##ey
##ez
##fa
##fb
##fc
##fd
##fe
##ff
##fg
##fh
##fi
##fj
##fk
##fl
##fm
##fn
##fo
##fp
##fq
##fr
##fs
##ft
##fu
##fv
##fw
##fx
##fz
##ga
##gb
##gc
##gd
##ge
##gf
##gg
##gh
##gi
##gj
##gk
##gl
##gm
##gn
##go
##gp
##gq
##gr
##gs
##gt
##gu
##gv
##gw
##gx
##gy
##gz
##ha
##hb
##hc
##hd
##he
##hf
##hg
##hh
##hi
##hj
##hk
##hl
##hm
##hn
##ho
##hp
##hq
##hr
##hs
##ht
##hu
##hv
##hw
##hx
##hy
##hz
##ia
##ib
##ic
##id
##ie
##if
##ig
##ih
##ii
##ij
##ik
##il
##im
##in
##io
##ip
##iq
##ir
##is
##it
##iu
##iv
##iw
##ix
##iy
##iz
##ja
##jb
##jc
##jd
##je
##jf
##jg
##jh
##ji
##jj
##jk
##jl
##jm
##jn
##jo
##jp
##jq
##jr
##js
##jt
##ju
##jv
##jw
##jx
##jy
##jz
##ka
##kb
##kc
##kd
##ke
##kf
##kg
##kh
##ki
##kj
##kk
##kl
##km
##kn
##ko
##kp
##kq
##kr
##ks
##kt
##ku
##kv
##kw
##kx
##ky
##kz
##la
##lb
##lc
##ld
##le
##lf
##lg
##lh
##li
##lj
##lk
##ll
##lm
##ln
##lo
##lp
##lq
##lr
##ls
##lt
##lu
##lv
##lw
##lx
##lz
##ma
##mb
##mc
##md
##me
##mf
##mg
##mh
##mi
##mj
##mk
##ml
##mm
##mn
##mo
##mp
##mq
##mr
##ms
##mt
##mu
##mv
##mw
##mx
##my
##mz
##na
##nb
##nc
##nd
##ne
##nf
##ng
##nh
##ni
##nj
##nk
##nl
##nm
##nn
##no
##np
##nq
##nr
##ns
##nt
##nu
##nv
##nw
##nx
##ny
##nz
##oa
##ob
##oc
##od
##oe
##of
##og
##oh
##oi
##oj
##ok
##ol
##om
##on
##oo
##op
##oq
##or
##os
##ot
##ou
##ov
##ow
##ox
##oy
##oz
##pa
##pb
##pc
##pd
##pe
##pf
##pg
##ph
##pi
##pj
##pk
##pl
##pm
##pn
##po
##pp
##pq
##pr
##ps
##pt
##pu
##pv
##pw
##px
##py
##pz
##qa
##qb
##qc
##qd
##qe
##qf
##qg
##qh
##qi
##qj
##qk
##ql
##qm
##qn
##qo
##qp
##qq
##qr
##qs
##qt
##qu
##qv
##qw
##qx
##qy
##qz
##ra
##rb
##rc
##rd
##re
##rf
##rg
##rh
##ri
##rj
##rk
##rl
##rm
##rn
##ro
##rp
##rq
##rr
##rs
##rt
##ru
##rv
##rw
##rx
##ry
##rz
##sa
##sb
##sc
##sd
##se
##sf
##sg
##sh
##si
##sj
##sk
##sl
##sm
##sn
##so
##sp
##sq
##sr
##ss
##st
##su
##sv
##sw
##sx
##sy
##sz
##ta
##tb
##tc
##td
##te
##tf
##tg
##th
##ti
##tj
##tk
##tl
##tm
##tn
##to
##tp
##tq
##tr
##ts
##tt
##tu
##tv
##tw
##tx
##ty
##tz
##ua
##ub
##uc
##ud
##ue
##uf
##ug
##uh
##ui
##uj
##uk
##ul
##um
##un
##uo
##up
##uq
##ur
##us
##ut
##uu
##uv
##uw
##ux
##uy
##uz
##va
##vb
##vc
##vd
##ve
##vf
##vg
##vh
##vi
##vj
##vk
##vl
##vm
##vn
##vo
##vp
##vq
##vr
##vs
##vt
##vu
##vv
##vw
##vx
##vy
##vz
##wa
##wb
##wc
##wd
##we
##wf
##wg
##wh
##wi
##wj
##wk
##wl
##wm
##wn
##wo
##wp
##wq
##wr
##ws
##wt
##wu
##wv
##ww
##wx
##wy
##wz
##xa
##xb
##xc
##xd
##xe
##xf
##xg
##xh
##xi
##xj
##xk
##xl
##xm
##xn
##xo
##xp
##xq
##xr
##xs
##xt
##xu
##xv
##xw
##xx
##xy
##xz
##ya
##yb
##yc
##yd
##ye
##yf
##yg
##yh
##yi
##yj
##yk
##yl
##ym
##yn
##yo
##yp
##yq
##yr
##ys
##yt
##yu
##yv
##yw
##yx
##yy
##yz
##za
##zb
##zc
##zd
##ze
##zf
##zg
##zh
##zi
##zj
##zk
##zl
##zm
##zn
##zo
##zp
##zq
##zr
##zs
##zt
##zu
##zv
##zw
##zx
##zy
##zz
##aaa
##aab
##aac
##aad
##aae
##aaf
##aag
##aah
##aai
##aaj
##aak
##aal
##aam
##aan
##aao
##aap
##aaq
##aar
##aas
##aat
##aau
##aav
##aaw
##aax
##aay
##aaz
##aba
##abb
##abc
##abd
##abe
##abf
##abg
##abh
##abi
##abj
##abk
##abl
##abm
##abn
##abo
##abp
##abq
##abr
##abs
##abt
##abu
##abv
##abw
##abx
##aby
##abz
##aca
##acb
##acc
##acd
##ace
##acf
##acg
##ach
##aci
##acj
##ack
##acl
##acm
##acn
##aco
##acp
##acq
##acr
##acs
##act
##acu
##acv
##acw
##acx
##acy
##acz
##ada
##adb
##adc
##add
##ade
##adf
##adg
##adh
##adi
##adj
##adk
##adl
##adm
##adn
##ado
##adp
##adq
##adr
##ads
##adt
##adu
##adv
##adw
##adx
##ady
##adz
##aea
##aeb
##aec
##aed
##aee
##aef
##aeg
##aeh
##aei
##aej
##aek
##ael
##aem
##aen
##aeo
##aep
##aeq
##aer
##aes
##aet
##aeu
##aev
##aew
##aex
##aey
##aez
##afa
##afb
##afc
##afd
##afe
##aff
##afg
##afh
##afi
##afj
##afk
##afl
##afm
##afn
##afo
##afp
##afq
##afr
##afs
##aft
##afu
##afv
##afw
##afx
##afy
##afz
##aga
##agb
##agc
##agd
##age
##agf
##agg
##agh
##agi
##agj
##agk
##agl
##agm
##agn
##ago
##agp
##agq
##agr
##ags
##agt
##agu
##agv
##agw
##agx
##agy
##agz
##aha
##ahb
##ahc
##ahd
##ahe
##ahf
##ahg
##ahh
##ahi
##ahj
##ahk
##ahl
##ahm
##ahn
##aho
##ahp
##ahq
##ahr
##ahs
##aht
##ahu
##ahv
##ahw
##ahx
##ahy
##ahz
##aia
##aib
##aic
##aid
##aie
##aif
##aig
##aih
##aii
##aij
##aik
##ail
##aim
##ain
##aio
##aip
##aiq
##air
##ais
##ait
##aiu
##aiv
##aiw
##aix
##aiy
##aiz
##aja
##ajb
##ajc
##ajd
##aje
##ajf
##ajg
##ajh
##aji
##ajj
##ajk
##ajl
##ajm
##ajn
##ajo
##ajp
##ajq
##ajr
##ajs
##ajt
##aju
##ajv
##ajw
##ajx
##ajy
##ajz
##aka
##akb
##akc
##akd
##ake
##akf
##akg
##akh
##aki
##akj
##akk
##akl
##akm
##akn
##ako
##akp
##akq
##akr
##aks
##akt
##aku
##akv
##akw
##akx
##aky
##akz
##ala
##alb
##alc
##ald
##ale
##alf
##alg
##alh
##ali
##alj
##alk
##all
##alm
##aln
##alo
##alp
##alq
##alr
##als
##alt
##alu
##alv
##alw
##alx
##aly
##alz
##ama
##amb
##amc
##amd
##ame
##amf
##amg
##amh
##ami
##amj
##amk
##aml
##amm
##amn
##amo
##amp
##amq
##amr
##ams
##amt
##amu
##amv
##amw
##amx
##amy
##amz
##ana
##anb
##anc
##and
##ane
##anf
##ang
##anh
##ani
##anj
##ank
##anl
##anm
##ann
##ano
##anp
##anq
##anr
##ans
##ant
##anu
##anv
##anw
##anx
##any
##anz
##aoa
##aob
##aoc
##aod
##aoe
##aof
##aog
##aoh
##aoi
##aoj
##aok
##aol
##aom
##aon
##aoo
##aop
##aoq
##aor
##aos
##aot
##aou
##aov
##aow
##aox
##aoy
##aoz
##apa
##apb
##apc
##apd
##ape
##apf
##apg
##aph
##api
##apj
##apk
##apl
##apm
##apn
##apo
##app
##apq
##apr
##aps
##apt
##apu
##apv
##apw
##apx
##apy
##apz
##aqa
##aqb
##aqc
##aqd
##aqe
##aqf
##aqg
##aqh
##aqi
##aqj
##aqk
##aql
##aqm
##aqn
##aqo
##aqp
##aqq
##aqr
##aqs
##aqt
##aqu
##aqv
##aqw
##aqx
##aqy
##aqz
##ara
##arb
##arc
##ard
##are
##arf
##arg
##arh
##ari
##arj
##ark
##arl
##arm
##arn
##aro
##arp
##arq
##arr
##ars
##art
##aru
##arv
##arw
##arx
##ary
##arz
##asa
##asb
##asc
##asd
##ase
##asf
##asg
##ash
##asi
##asj
##ask
##asl
##asm
##asn
##aso
##asp
##asq
##asr
##ass
##ast
##asu
##asv
##asw
##asx
##asy
##asz
##ata
##atb
##atc
##atd
##ate
##atf
##atg
##ath
##ati
##atj
##atk
##atl
##atm
##atn
##ato
##atp
##atq
##atr
##ats
##att
##atu
##atv
##atw
##atx
##aty
##atz
##aua
##aub
##auc
##aud
##aue
##auf
##aug
##auh
##aui
##auj
##auk
##aul
##aum
##aun
##auo
##aup
##auq
##aur
##aus
##aut
##auu
##auv
##auw
##aux
##auy
##auz
##ava
##avb
##avc
##avd
##ave
##avf
##avg
##avh
##avi
##avj
##avk
##avl
##avm
##avn
##avo
##avp
##avq
##avr
##avs
##avt
##avu
##avv
##avw
##avx
##avy
##avz
##awa
##awb
##awc
##awd
##awe
##awf
##awg
##awh
##awi
##awj
##awk
##awl
##awm
##awn
##awo
##awp
##awq
##awr
##aws
##awt
##awu
##awv
##aww
##awx
##awy
##awz
##axa
##axb
##axc
##axd
##axe
##axf
##axg
##axh
##axi
##axj
##axk
##axl
##axm
##axn
##axo
##axp
##axq
##axr
##axs
##axt
##axu
##axv
##axw
##axx
##axy
##axz
##aya
##ayb
##ayc
##ayd
##aye
##ayf
##ayg
##ayh
##ayi
##ayj
##ayk
##ayl
##aym
##ayn
##ayo
##ayp
##ayq
##ayr
##ays
##ayt
##ayu
##ayv
##ayw
##ayx
##ayy
##ayz
##aza
##azb
##azc
##azd
##aze
##azf
##azg
##azh
##azi
##azj
##azk
##azl
##azm
##azn
##azo
##azp
##azq
##azr
##azs
##azt
##azu
##azv
##azw
##azx
##azy
##azz
##baa
##bab
##bac
##bad
##bae
##baf
##bag
##bah
##bai
##baj
##bak
##bal
##bam
##ban
##bao
##bap
##baq
##bar
##bas
##bat
##bau
##bav
##baw
##bax
##bay
##baz
##bba
##bbb
##bbc
##bbd
##bbe
##bbf
##bbg
##bbh
##bbi
##bbj
##bbk
##bbl
##bbm
##bbn
##bbo
##bbp
##bbq
##bbr
##bbs
##bbt
##bbu
##bbv
##bbw
##bbx
##bby
##bbz
##bca
##bcb
##bcc
##bcd
##bce
##bcf
##bcg
##bch
##bci
##bcj
##bck
##bcl
##bcm
##bcn
##bco
##bcp
##bcq
##bcr
##bcs
##bct
##bcu
##bcv
##bcw
##bcx
##bcy
##bcz
##bda
##bdb
##bdc
##bdd
##bde
##bdf
##bdg
##bdh
##bdi
##bdj
##bdk
##bdl
##bdm
##bdn
##bdo
##bdp
##bdq
##bdr
##bds
##bdt
##bdu
##bdv
##bdw
##bdx
##bdy
##bdz
##bea
##beb
##bec
##bed
##bee
##bef
##beg
##beh
##bei
##bej
##bek
##bel
##bem
##ben
##beo
##bep
##beq
##ber
##bes
##bet
##beu
##bev
##bew
##bex
##bey
##bez
##bfa
##bfb
##bfc
##bfd
##bfe
##bff
##bfg
##bfh
##bfi
##bfj
##bfk
##bfl
##bfm
##bfn
##bfo
##bfp
##bfq
##bfr
##bfs
##bft
##bfu
##bfv
##bfw
##bfx
##bfy
##bfz
##bga
##bgb
##bgc
##bgd
##bge
##bgf
##bgg
##bgh
##bgi
##bgj
##bgk
##bgl
##bgm
##bgn
##bgo
##bgp
##bgq
##bgr
##bgs
##bgt
##bgu
##bgv
##bgw
##bgx
##bgy
##bgz
##bha
##bhb
##bhc
##bhd
##bhe
##bhf
##bhg
##bhh
##bhi
##bhj
##bhk
##bhl
##bhm
##bhn
##bho
##bhp
##bhq
##bhr
##bhs
##bht
##bhu
##bhv
##bhw
##bhx
##bhy
##bhz
##bia
##bib
##bic
##bid
##bie
##bif
##big
##bih
##bii
##bij
##bik
##bil
##bim
##bin
##bio
##bip
##biq
##bir
##bis
##bit
##biu
##biv
##biw
##bix
##biy
##biz
##bja
##bjb
##bjc
##bjd
##bje
##bjf
##bjg
##bjh
##bji
##bjj
##bjk
##bjl
##bjm
##bjn
##bjo
##bjp
##bjq
##bjr
##bjs
##bjt
##bju
##bjv
##bjw
##bjx
##bjy
##bjz
##bka
##bkb
##bkc
##bkd
##bke
##bkf
##bkg
##bkh
##bki
##bkj
##bkk
##bkl
##bkm
##bkn
##bko
##bkp
##bkq
##bkr
##bks
##bkt
##bku
##bkv
##bkw
##bkx
##bky
##bkz
##bla
##blb
##blc
##bld
##ble
##blf
##blg
##blh
##bli
##blj
##blk
##bll
##blm
##bln
##blo
##blp
##blq
##blr
##bls
##blt
##blu
##blv
##blw
##blx
##bly
##blz
##bma
##bmb
##bmc
##bmd
##bme
##bmf
##bmg
##bmh
##bmi
##bmj
##bmk
##bml
##bmm
##bmn
##bmo
##bmp
##bmq
##bmr
##bms
##bmt
##bmu
##bmv
##bmw
##bmx
##bmy
##bmz
##bna
##bnb
##bnc
##bnd
##bne
##bnf
##bng
##bnh
##bni
##bnj
##bnk
##bnl
##bnm
##bnn
##bno
##bnp
##bnq
##bnr
##bns
##bnt
##bnu
##bnv
##bnw
##bnx
##bny
##bnz
##boa
##bob
##boc
##bod
##boe
##bof
##bog
##boh
##boi
##boj
##bok
##bol
##bom
##bon
##boo
##bop
##boq
##bor
##bos
##bot
##bou
##bov
##bow
##box
##boy
##boz
##bpa
##bpb
##bpc
##bpd
##bpe
##bpf
##bpg
##bph
##bpi
##bpj
##bpk
##bpl
##bpm
##bpn
##bpo
##bpp
##bpq
##bpr
##bps
##bpt
##bpu
##bpv
##bpw
##bpx
##bpy
##bpz
##bqa
##bqb
##bqc
##bqd
##bqe
##bqf
##bqg
##bqh
##bqi
##bqj
##bqk
##bql
##bqm
##bqn
##bqo
##bqp
##bqq
##bqr
##bqs
##bqt
##bqu
##bqv
##bqw
##bqx
##bqy
##bqz
##bra
##brb
##brc
##brd
##bre
##brf
##brg
##brh
##bri
##brj
##brk
##brl
##brm
##brn
##bro
##brp
##brq
##brr
##brs
##brt
##bru
##brv
##brw
##brx
##bry
##brz
##bsa
##bsb
##bsc
##bsd
##bse
##bsf
##bsg
##bsh
##bsi
##bsj
##bsk
##bsl
##bsm
##bsn
##bso
##bsp
##bsq
##bsr
##bss
##bst
##bsu
##bsv
##bsw
##bsx
##bsy
##bsz
##bta
##btb
##btc
##btd
##bte
##btf
##btg
##bth
##bti
##btj
##btk
##btl
##btm
##btn
##bto
##btp
##btq
##btr
##bts
##btt
##btu
##btv
##btw
##btx
##bty
##btz
##bua
##bub
##buc
##bud
##bue
##buf
##bug
##buh
##bui
##buj
##buk
##bul
##bum
##bun
##buo
##bup
##buq
##bur
##bus
##but
##buu
##buv
##buw
##bux
##buy
##buz
##bva
##bvb
##bvc
##bvd
##bve
##bvf
##bvg
##bvh
##bvi
##bvj
##bvk
##bvl
##bvm
##bvn
##bvo
##bvp
##bvq
##bvr
##bvs
##bvt
##bvu
##bvv
##bvw
##bvx
##bvy
##bvz
##bwa
##bwb
##bwc
##bwd
##bwe
##bwf
##bwg
##bwh
##bwi
##bwj
##bwk
##bwl
##bwm
##bwn
##bwo
##bwp
##bwq
##bwr
##bws
##bwt
##bwu
##bwv
##bww
##bwx
##bwy
##bwz
##bxa
##bxb
##bxc
##bxd
##bxe
##bxf
##bxg
##bxh
##bxi
##bxj
##bxk
##bxl
##bxm
##bxn
##bxo
##bxp
##bxq
##bxr
##bxs
##bxt
##bxu
##bxv
##bxw
##bxx
##bxy
##bxz
##bya
##byb
##byc
##byd
##bye
##byf
##byg
##byh
##byi
##byj
##byk
##byl
##bym
##byn
##byo
##byp
##byq
##byr
##bys
##byt
##byu
##byv
##byw
##byx
##byy
##byz
##bza
##bzb
##bzc
##bzd
##bze
##bzf
##bzg
##bzh
##bzi
##bzj
##bzk
##bzl
##bzm
##bzn
##bzo
##bzp
##bzq
##bzr
##bzs
##bzt
##bzu
##bzv
##bzw
##bzx
##bzy
##bzz
##caa
##cab
##cac
##cad
##cae
##caf
##cag
##cah
##cai
##caj
##cak
##cal
##cam
##can
##cao
##cap
##caq
##car
##cas
##cat
##cau
##cav
##caw
##cax
##cay
##caz
##cba
##cbb
##cbc
##cbd
##cbe
##cbf
##cbg
##cbh
##cbi
##cbj
##cbk
##cbl
##cbm
##cbn
##cbo
##cbp
##cbq
##cbr
##cbs
##cbt
##cbu
##cbv
##cbw
##cbx
##cby
##cbz
##cca
##ccb
##ccc
##ccd
##cce
##ccf
##ccg
##cch
##cci
##ccj
##cck
##ccl
##ccm
##ccn
##cco
##ccp
##ccq
##ccr
##ccs
##cct
##ccu
##ccv
##ccw
##ccx
##ccy
##ccz
##cda
##cdb
##cdc
##cdd
##cde
##cdf
##cdg
##cdh
##cdi
##cdj
##cdk
##cdl
##cdm
##cdn
##cdo
##cdp
##cdq
##cdr
##cds
##cdt
##cdu
##cdv
##cdw
##cdx
##cdy
##cdz
##cea
##ceb
##cec
##ced
##cee
##cef
##ceg
##ceh
##cei
##cej
##cek
##cel
##cem
##cen
##ceo
##cep
##ceq
##cer
##ces
##cet
##ceu
##cev
##cew
##cex
##cey
##cez
##cfa
##cfb
##cfc
##cfd
##cfe
##cff
##cfg
##cfh
##cfi
##cfj
##cfk
##cfl
##cfm
##cfn
##cfo
##cfp
##cfq
##cfr
##cfs
##cft
##cfu
##cfv
##cfw
##cfx
##cfy
##cfz
##cga
##cgb
##cgc
##cgd
##cge
##cgf
##cgg
##cgh
##cgi
##cgj
##cgk
##cgl
##cgm
##cgn
##cgo
##cgp
##cgq
##cgr
##cgs
##cgt
##cgu
##cgv
##cgw
##cgx
##cgy
##cgz
##cha
##chb
##chc
##chd
##che
##chf
##chg
##chh
##chi
##chj
##chk
##chl
##chm
##chn
##cho
##chp
##chq
##chr
##chs
##cht
##chu
##chv
##chw
##chx
##chy
##chz
##cia
##cib
##cic
##cid
##cie
##cif
##cig
##cih
##cii
##cij
##cik
##cil
##cim
##cin
##cio
##cip
##ciq
##cir
##cis
##cit
##ciu
##civ
##ciw
##cix
##ciy
##ciz
##cja
##cjb
##cjc
##cjd
##cje
##cjf
##cjg
##cjh
##cji
##cjj
##cjk
##cjl
##cjm
##cjn
##cjo
##cjp
##cjq
##cjr
##cjs
##cjt
##cju
##cjv
##cjw
##cjx
##cjy
##cjz
##cka
##ckb
##ckc
##ckd
##cke
##ckf
##ckg
##ckh
##cki
##ckj
##ckk
##ckl
##ckm
##ckn
##cko
##ckp
##ckq
##ckr
##cks
##ckt
##cku
##ckv
##ckw
##ckx
##cky
##ckz
##cla
##clb
##clc
##cld
##cle
##clf
##clg
##clh
##cli
##clj
##clk
##cll
##clm
##cln
##clo
##clp
##clq
##clr
##cls
##clt
##clu
##clv
##clw
##clx
##cly
##clz
##cma
##cmb
##cmc
##cmd
##cme
##cmf
##cmg
##cmh
##cmi
##cmj
##cmk
##cml
##cmm
##cmn
##cmo
##cmp
##cmq
##cmr
##cms
##cmt
##cmu
##cmv
##cmw
##cmx
##cmy
##cmz
##cna
##cnb
##cnc
##cnd
##cne
##cnf
##cng
##cnh
##cni
##cnj
##cnk
##cnl
##cnm
##cnn
##cno
##cnp
##cnq
##cnr
##cns
##cnt
##cnu
##cnv
##cnw
##cnx
##cny
##cnz
##coa
##cob
##coc
##cod
##coe
##cof
##cog
##coh
##coi
##coj
##cok
##col
##com
##con
##coo
##cop
##coq
##cor
##cos
##cot
##cou
##cov
##cow
##cox
##coy
##coz
##cpa
##cpb
##cpc
##cpd
##cpe
##cpf
##cpg
##cph
##cpi
##cpj
##cpk
##cpl
##cpm
##cpn
##cpo
##cpp
##cpq
##cpr
##cps
##cpt
##cpu
##cpv
##cpw
##cpx
##cpy
##cpz
##cqa
##cqb
##cqc
##cqd
##cqe
##cqf
##cqg
##cqh
##cqi
##cqj
##cqk
##cql
##cqm
##cqn
##cqo
##cqp
##cqq
##cqr
##cqs
##cqt
##cqu
##cqv
##cqw
##cqx
##cqy
##cqz
##cra
##crb
##crc
##crd
##cre
##crf
##crg
##crh
##cri
##crj
##crk
##crl
##crm
##crn
##cro
##crp
##crq
##crr
##crs
##crt
##cru
##crv
##crw
##crx
##cry
##crz
##csa
##csb
##csc
##csd
##cse
##csf
##csg
##csh
##csi
##csj
##csk
##csl
##csm
##csn
##cso
##csp
##csq
##csr
##css
##cst
##csu
##csv
##csw
##csx
##csy
##csz
##cta
##ctb
##ctc
##ctd
##cte
##ctf
##ctg
##cth
##cti
##ctj
##ctk
##ctl
##ctm
##ctn
##cto
##ctp
##ctq
##ctr
##cts
##ctt
##ctu
##ctv
##ctw
##ctx
##cty
##ctz
##cua
##cub
##cuc
##cud
##cue
##cuf
##cug
##cuh
##cui
##cuj
##cuk
##cul
##cum
##cun
##cuo
##cup
##cuq
##cur
##cus
##cut
##cuu
##cuv
##cuw
##cux
##cuy
##cuz
##cva
##cvb
##cvc
##cvd
##cve
##cvf
##cvg
##cvh
##cvi
##cvj
##cvk
##cvl
##cvm
##cvn
##cvo
##cvp
##cvq
##cvr
##cvs
##cvt
##cvu
##cvv
##cvw
##cvx
##cvy
##cvz
##cwa
##cwb
##cwc
##cwd
##cwe
##cwf
##cwg
##cwh
##cwi
##cwj
##cwk
##cwl
##cwm
##cwn
##cwo
##cwp
##cwq
##cwr
##cws
##cwt
##cwu
##cwv
##cww
##cwx
##cwy
##cwz
##cxa
##cxb
##cxc
##cxd
##cxe
##cxf
##cxg
##cxh
##cxi
##cxj
##cxk
##cxl
##cxm
##cxn
##cxo
##cxp
##cxq
##cxr
##cxs
##cxt
##cxu
##cxv
##cxw
##cxx
##cxy
##cxz
##cya
##cyb
##cyc
##cyd
##cye
##cyf
##cyg
##cyh
##cyi
##cyj
##cyk
##cyl
##cym
##cyn
##cyo
##cyp
##cyq
##cyr
##cys
##cyt
##cyu
##cyv
##cyw
##cyx
##cyy
##cyz
##cza
##czb
##czc
##czd
##cze
##czf
##czg
##czh
##czi
##czj
##czk
##czl
##czm
##czn
##czo
##czp
##czq
##czr
##czs
##czt
##czu
##czv
##czw
##czx
##czy
##czz
##daa
##dab
##dac
##dad
##dae
##daf
##dag
##dah
##dai
##daj
##dak
##dal
##dam
##dan
##dao
##dap
##daq
##dar
##das
##dat
##dau
##dav
##daw
##dax
##day
##daz
##dba
##dbb
##dbc
##dbd
##dbe
##dbf
##dbg
##dbh
##dbi
##dbj
##dbk
##dbl
##dbm
##dbn
##dbo
##dbp
##dbq
##dbr
##dbs
##dbt
##dbu
##dbv
##dbw
##dbx
##dby
##dbz
##dca
##dcb
##dcc
##dcd
##dce
##dcf
##dcg
##dch
##dci
##dcj
##dck
##dcl
##dcm
##dcn
##dco
##dcp
##dcq
##dcr
##dcs
##dct
##dcu
##dcv
##dcw
##dcx
##dcy
##dcz
##dda
##ddb
##ddc
##ddd
##dde
##ddf
##ddg
##ddh
##ddi
##ddj
##ddk
##ddl
##ddm
##ddn
##ddo
##ddp
##ddq
##ddr
##dds
##ddt
##ddu
##ddv
##ddw
##ddx
##ddy
##ddz
##dea
##deb
##dec
##ded
##dee
##def
##deg
##deh
##dei
##dej
##dek
##del
##dem
##den
##deo
##dep
##deq
##der
##des
##det
##deu
##dev
##dew
##dex
##dey
##dez
##dfa
##dfb
##dfc
##dfd
##dfe
##dff
##dfg
##dfh
##dfi
##dfj
##dfk
##dfl
##dfm
##dfn
##dfo
##dfp
##dfq
##dfr
##dfs
##dft
##dfu
##dfv
##dfw
##dfx
##dfy
##dfz
##dga
##dgb
##dgc
##dgd
##dge
##dgf
##dgg
##dgh
##dgi
##dgj
##dgk
##dgl
##dgm
##dgn
##dgo
##dgp
##dgq
##dgr
##dgs
##dgt
##dgu
##dgv
##dgw
##dgx
##dgy
##dgz
##dha
##dhb
##dhc
##dhd
##dhe
##dhf
##dhg
##dhh
##dhi
##dhj
##dhk
##dhl
##dhm
##dhn
##dho
##dhp
##dhq
##dhr
##dhs
##dht
##dhu
##dhv
##dhw
##dhx
##dhy
##dhz
##dia
##dib
##dic
##did
##die
##dif
##dig
##dih
##dii
##dij
##dik
##dil
##dim
##din
##dio
##dip
##diq
##dir
##dis
##dit
##diu
##div
##diw
##dix
##diy
##diz
##dja
##djb
##djc
##djd
##dje
##djf
##djg
##djh
##dji
##djj
##djk
##djl
##djm
##djn
##djo
##djp
##djq
##djr
##djs
##djt
##dju
##djv
##djw
##djx
##djy
##djz
##dka
##dkb
##dkc
##dkd
##dke
##dkf
##dkg
##dkh
##dki
##dkj
##dkk
##dkl
##dkm
##dkn
##dko
##dkp
##dkq
##dkr
##dks
##dkt
##dku
##dkv
##dkw
##dkx
##dky
##dkz
##dla
##dlb
##dlc
##dld
##dle
##dlf
##dlg
##dlh
##dli
##dlj
##dlk
##dll
##dlm
##dln
##dlo
##dlp
##dlq
##dlr
##dls
##dlt
##dlu
##dlv
##dlw
##dlx
##dly
##dlz
##dma
##dmb
##dmc
##dmd
##dme
##dmf
##dmg
##dmh
##dmi
##dmj
##dmk
##dml
##dmm
##dmn
##dmo
##dmp
##dmq
##dmr
##dms
##dmt
##dmu
##dmv
##dmw
##dmx
##dmy
##dmz
##dna
##dnb
##dnc
##dnd
##dne
##dnf
##dng
##dnh
##dni
##dnj
##dnk
##dnl
##dnm
##dnn
##dno
##dnp
##dnq
##dnr
##dns
##dnt
##dnu
##dnv
##dnw
##dnx
##dny
##dnz
##doa
##dob
##doc
##dod
##doe
##dof
##dog
##doh
##doi
##doj
##dok
##dol
##dom
##don
##doo
##dop
##doq
##dor
##dos
##dot
##dou
##dov
##dow
##dox
##doy
##doz
##dpa
##dpb
##dpc
##dpd
##dpe
##dpf
##dpg
##dph
##dpi
##dpj
##dpk
##dpl
##dpm
##dpn
##dpo
##dpp
##dpq
##dpr
##dps
##dpt
##dpu
##dpv
##dpw
##dpx
##dpy
##dpz
##dqa
##dqb
##dqc
##dqd
##dqe
##dqf
##dqg
##dqh
##dqi
##dqj
##dqk
##dql
##dqm
##dqn
##dqo
##dqp
##dqq
##dqr
##dqs
##dqt
##dqu
##dqv
##dqw
##dqx
##dqy
##dqz
##dra
##drb
##drc
##drd
##dre
##drf
##drg
##drh
##dri
##drj
##drk
##drl
##drm
##drn
##dro
##drp
##drq
##drr
##drs
##drt
##dru
##drv
##drw
##drx
##dry
##drz
##dsa
##dsb
##dsc
##dsd
##dse
##dsf
##dsg
##dsh
##dsi
##dsj
##dsk
##dsl
##dsm
##dsn
##dso
##dsp
##dsq
##dsr
##dss
##dst
##dsu
##dsv
##dsw
##dsx
##dsy
##dsz
##dta
##dtb
##dtc
##dtd
##dte
##dtf
##dtg
##dth
##dti
##dtj
##dtk
##dtl
##dtm
##dtn
##dto
##dtp
##dtq
##dtr
##dts
##dtt
##dtu
##dtv
##dtw
##dtx
##dty
##dtz
##dua
##dub
##duc
##dud
##due
##duf
##dug
##duh
##dui
##duj
##duk
##dul
##dum
##dun
##duo
##dup
##duq
##dur
##dus
##dut
##duu
##duv
##duw
##dux
##duy
##duz
##dva
##dvb
##dvc
##dvd
##dve
##dvf
##dvg
##dvh
##dvi
##dvj
##dvk
##dvl
##dvm
##dvn
##dvo
##dvp
##dvq
##dvr
##dvs
##dvt
##dvu
##dvv
##dvw
##dvx
##dvy
##dvz
##dwa
##dwb
##dwc
##dwd
##dwe
##dwf
##dwg
##dwh
##dwi
##dwj
##dwk
##dwl
##dwm
##dwn
##dwo
##dwp
##dwq
##dwr
##dws
##dwt
##dwu
##dwv
##dww
##dwx
##dwy
##dwz
##dxa
##dxb
##dxc
##dxd
##dxe
##dxf
##dxg
##dxh
##dxi
##dxj
##dxk
##dxl
##dxm
##dxn
##dxo
##dxp
##dxq
##dxr
##dxs
##dxt
##dxu
##dxv
##dxw
##dxx
##dxy
##dxz
##dya
##dyb
##dyc
##dyd
##dye
##dyf
##dyg
##dyh
##dyi
##dyj
##dyk
##dyl
##dym
##dyn
##dyo
##dyp
##dyq
##dyr
##dys
##dyt
##dyu
##dyv
##dyw
##dyx
##dyy
##dyz
##dza
##dzb
##dzc
##dzd
##dze
##dzf
##dzg
##dzh
##dzi
##dzj
##dzk
##dzl
##dzm
##dzn
##dzo
##dzp
##dzq
##dzr
##dzs
##dzt
##dzu
##dzv
##dzw
##dzx
##dzy
##dzz
##eaa
##eab
##eac
##ead
##eae
##eaf
##eag
##eah
##eai
##eaj
##eak
##eal
##eam
##ean
##eao
##eap
##eaq
##ear
##eas
##eat
##eau
##eav
##eaw
##eax
##eay
##eaz
##eba
##ebb
##ebc
##ebd
##ebe
##ebf
##ebg
##ebh
##ebi
##ebj
##ebk
##ebl
##ebm
##ebn
##ebo
##ebp
##ebq
##ebr
##ebs
##ebt
##ebu
##ebv
##ebw
##ebx
##eby
##ebz
##eca
##ecb
##ecc
##ecd
##ece
##ecf
##ecg
##ech
##eci
##ecj
##eck
##ecl
##ecm
##ecn
##eco
##ecp
##ecq
##ecr
##ecs
##ect
##ecu
##ecv
##ecw
##ecx
##ecy
##ecz
##eda
##edb
##edc
##edd
##ede
##edf
##edg
##edh
##edi
##edj
##edk
##edl
##edm
##edn
##edo
##edp
##edq
##edr
##eds
##edt
##edu
##edv
##edw
##edx
##edy
##edz
##eea
##eeb
##eec
##eed
##eee
##eef
##eeg
##eeh
##eei
##eej
##eek
##eel
##eem
##een
##eeo
##eep
##eeq
##eer
##ees
##eet
##eeu
##eev
##eew
##eex
##eey
##eez
##efa
##efb
##efc
##efd
##efe
##eff
##efg
##efh
##efi
##efj
##efk
##efl
##efm
##efn
##efo
##efp
##efq
##efr
##efs
##eft
##efu
##efv
##efw
##efx
##efy
##efz
##ega
##egb
##egc
##egd
##ege
##egf
##egg
##egh
##egi
##egj
##egk
##egl
##egm
##egn
##ego
##egp
##egq
##egr
##egs
##egt
##egu
##egv
##egw
##egx
##egy
##egz
##eha
##ehb
##ehc
##ehd
##ehe
##ehf
##ehg
##ehh
##ehi
##ehj
##ehk
##ehl
##ehm
##ehn
##eho
##ehp
##ehq
##ehr
##ehs
##eht
##ehu
##ehv
##ehw
##ehx
##ehy
##ehz
##eia
##eib
##eic
##eid
##eie
##eif
##eig
##eih
##eii
##eij
##eik
##eil
##eim
##ein
##eio
##eip
##eiq
##eir
##eis
##eit
##eiu
##eiv
##eiw
##eix
##eiy
##eiz
##eja
##ejb
##ejc
##ejd
##eje
##ejf
##ejg
##ejh
##eji
##ejj
##ejk
##ejl
##ejm
##ejn
##ejo
##ejp
##ejq
##ejr
##ejs
##ejt
##eju
##ejv
##ejw
##ejx
##ejy
##ejz
##eka
##ekb
##ekc
##ekd
##eke
##ekf
##ekg
##ekh
##eki
##ekj
##ekk
##ekl
##ekm
##ekn
##eko
##ekp
##ekq
##ekr
##eks
##ekt
##eku
##ekv
##ekw
##ekx
##eky
##ekz
##ela
##elb
##elc
##eld
##ele
##elf
##elg
##elh
##eli
##elj
##elk
##ell
##elm
##eln
##elo
##elp
##elq
##elr
##els
##elt
##elu
##elv
##elw
##elx
##ely
##elz
##ema
##emb
##emc
##emd
##eme
##emf
##emg
##emh
##emi
##emj
##emk
##eml
##emm
##emn
##emo
##emp
##emq
##emr
##ems
##emt
##emu
##emv
##emw
##emx
##emy
##emz
##ena
##enb
##enc
##end
##ene
##enf
##eng
##enh
##eni
##enj
##enk
##enl
##enm
##enn
##eno
##enp
##enq
##enr
##ens
##ent
##enu
##env
##enw
##enx
##eny
##enz
##eoa
##eob
##eoc
##eod
##eoe
##eof
##eog
##eoh
##eoi
##eoj
##eok
##eol
##eom
##eon
##eoo
##eop
##eoq
##eor
##eos
##eot
##eou
##eov
##eow
##eox
##eoy
##eoz
##epa
##epb
##epc
##epd
##epe
##epf
##epg
##eph
##epi
##epj
##epk
##epl
##epm
##epn
##epo
##epp
##epq
##epr
##eps
##ept
##epu
##epv
##epw
##epx
##epy
##epz
##eqa
##eqb
##eqc
##eqd
##eqe
##eqf
##eqg
##eqh
##eqi
##eqj
##eqk
##eql
##eqm
##eqn
##eqo
##eqp
##eqq
##eqr
##eqs
##eqt
##equ
##eqv
##eqw
##eqx
##eqy
##eqz
##era
##erb
##erc
##erd
##ere
##erf
##erg
##erh
##eri
##erj
##erk
##erl
##erm
##ern
##ero
##erp
##erq
##err
##ers
##ert
##eru
##erv
##erw
##erx
##ery
##erz
##esa
##esb
##esc
##esd
##ese
##esf
##esg
##esh
##esi
##esj
##esk
##esl
##esm
##esn
##eso
##esp
##esq
##esr
##ess
##est
##esu
##esv
##esw
##esx
##esy
##esz
##eta
##etb
##etc
##etd
##ete
##etf
##etg
##eth
##eti
##etj
##etk
##etl
##etm
##etn
##eto
##etp
##etq
##etr
##ets
##ett
##etu
##etv
##etw
##etx
##ety
##etz
##eua
##eub
##euc
##eud
##eue
##euf
##eug
##euh
##eui
##euj
##euk
##eul
##eum
##eun
##euo
##eup
##euq
##eur
##eus
##eut
##euu
##euv
##euw
##eux
##euy
##euz
##eva
##evb
##evc
##evd
##eve
##evf
##evg
##evh
##evi
##evj
##evk
##evl
##evm
##evn
##evo
##evp
##evq
##evr
##evs
##evt
##evu
##evv
##evw
##evx
##evy
##evz
##ewa
##ewb
##ewc
##ewd
##ewe
##ewf
##ewg
##ewh
##ewi
##ewj
##ewk
##ewl
##ewm
##ewn
##ewo
##ewp
##ewq
##ewr
##ews
##ewt
##ewu
##ewv
##eww
##ewx
##ewy
##ewz
##exa
##exb
##exc
##exd
##exe
##exf
##exg
##exh
##exi
##exj
##exk
##exl
##exm
##exn
##exo
##exp
##exq
##exr
##exs
##ext
##exu
##exv
##exw
##exx
##exy
##exz
##eya
##eyb
##eyc
##eyd
##eye
##eyf
##eyg
##eyh
##eyi
##eyj
##eyk
##eyl
##eym
##eyn
##eyo
##eyp
##eyq
##eyr
##eys
##eyt
##eyu
##eyv
##eyw
##eyx
##eyy
##eyz
##eza
##ezb
##ezc
##ezd
##eze
##ezf
##ezg
##ezh
##ezi
##ezj
##ezk
##ezl
##ezm
##ezn
##ezo
##ezp
##ezq
##ezr
##ezs
##ezt
##ezu
##ezv
##ezw
##ezx
##ezy
##ezz
##faa
##fab
##fac
##fad
##fae
##faf
##fag
##fah
##fai
##faj
##fak
##fal
##fam
##fan
##fao
##fap
##faq
##far
##fas
##fat
##fau
##fav
##faw
##fax
##fay
##faz
##fba
##fbb
##fbc
##fbd
##fbe
##fbf
##fbg
##fbh
##fbi
##fbj
##fbk
##fbl
##fbm
##fbn
##fbo
##fbp
##fbq
##fbr
##fbs
##fbt
##fbu
##fbv
##fbw
##fbx
##fby
##fbz
##fca
##fcb
##fcc
##fcd
##fce
##fcf
##fcg
##fch
##fci
##fcj
##fck
##fcl
##fcm
##fcn
##fco
##fcp
##fcq
##fcr
##fcs
##fct
##fcu
##fcv
##fcw
##fcx
##fcy
##fcz
##fda
##fdb
##fdc
##fdd
##fde
##fdf
##fdg
##fdh
##fdi
##fdj
##fdk
##fdl
##fdm
##fdn
##fdo
##fdp
##fdq
##fdr
##fds
##fdt
##fdu
##fdv
##fdw
##fdx
##fdy
##fdz
##fea
##feb
##fec
##fed
##fee
##fef
##feg
##feh
##fei
##fej
##fek
##fel
##fem
##fen
##feo
##fep
##feq
##fer
##fes
##fet
##feu
##fev
##few
##fex
##fey
##fez
##ffa
##ffb
##ffc
##ffd
##ffe
##fff
##ffg
##ffh
##ffi
##ffj
##ffk
##ffl
##ffm
##ffn
##ffo
##ffp
##ffq
##ffr
##ffs
##fft
##ffu
##ffv
##ffw
##ffx
##ffy
##ffz
##fga
##fgb
##fgc
##fgd
##fge
##fgf
##fgg
##fgh
##fgi
##fgj
##fgk
##fgl
##fgm
##fgn
##fgo
##fgp
##fgq
##fgr
##fgs
##fgt
##fgu
##fgv
##fgw
##fgx
##fgy
##fgz
##fha
##fhb
##fhc
##fhd
##fhe
##fhf
##fhg
##fhh
##fhi
##fhj
##fhk
##fhl
##fhm
##fhn
##fho
##fhp
##fhq
##fhr
##fhs
##fht
##fhu
##fhv
##fhw
##fhx
##fhy
##fhz
##fia
##fib
##fic
##fid
##fie
##fif
##fig
##fih
##fii
##fij
##fik
##fil
##fim
##fin
##fio
##fip
##fiq
##fir
##fis
##fit
##fiu
##fiv
##fiw
##fix
##fiy
##fiz
##fja
##fjb
##fjc
##fjd
##fje
##fjf
##fjg
##fjh
##fji
##fjj
##fjk
##fjl
##fjm
##fjn
##fjo
##fjp
##fjq
##fjr
##fjs
##fjt
##fju
##fjv
##fjw
##fjx
##fjy
##fjz
##fka
##fkb
##fkc
##fkd
##fke
##fkf
##fkg
##fkh
##fki
##fkj
##fkk
##fkl
##fkm
##fkn
##fko
##fkp
##fkq
##fkr
##fks
##fkt
##fku
##fkv
##fkw
##fkx
##fky
##fkz
##fla
##flb
##flc
##fld
##fle
##flf
##flg
##flh
##fli
##flj
##flk
##fll
##flm
##fln
##flo
##flp
##flq
##flr
##fls
##flt
##flu
##flv
##flw
##flx
##fly
##flz
##fma
##fmb
##fmc
##fmd
##fme
##fmf
##fmg
##fmh
##fmi
##fmj
##fmk
##fml
##fmm
##fmn
##fmo
##fmp
##fmq
##fmr
##fms
##fmt
##fmu
##fmv
##fmw
##fmx
##fmy
##fmz
##fna
##fnb
##fnc
##fnd
##fne
##fnf
##fng
##fnh
##fni
##fnj
##fnk
##fnl
##fnm
##fnn
##fno
##fnp
##fnq
##fnr
##fns
##fnt
##fnu
##fnv
##fnw
##fnx
##fny
##fnz
##foa
##fob
##foc
##fod
##foe
##fof
##fog
##foh
##foi
##foj
##fok
##fol
##fom
##fon
##foo
##fop
##foq
##for
##fos
##fot
##fou
##fov
##fow
##fox
##foy
##foz
##fpa
##fpb
##fpc
##fpd
##fpe
##fpf
##fpg
##fph
##fpi
##fpj
##fpk
##fpl
##fpm
##fpn
##fpo
##fpp
##fpq
##fpr
##fps
##fpt
##fpu
##fpv
##fpw
##fpx
##fpy
##fpz
##fqa
##fqb
##fqc
##fqd
##fqe
##fqf
##fqg
##fqh
##fqi
##fqj
##fqk
##fql
##fqm
##fqn
##fqo
##fqp
##fqq
##fqr
##fqs
##fqt
##fqu
##fqv
##fqw
##fqx
##fqy
##fqz
##fra
##frb
##frc
##frd
##fre
##frf
##frg
##frh
##fri
##frj
##frk
##frl
##frm
##frn
##fro
##frp
##frq
##frr
##frs
##frt
##fru
##frv
##frw
##frx
##fry
##frz
##fsa
##fsb
##fsc
##fsd
##fse
##fsf
##fsg
##fsh
##fsi
##fsj
##fsk
##fsl
##fsm
##fsn
##fso
##fsp
##fsq
##fsr
##fss
##fst
##fsu
##fsv
##fsw
##fsx
##fsy
##fsz
##fta
##ftb
##ftc
##ftd
##fte
##ftf
##ftg
##fth
##fti
##ftj
##ftk
##ftl
##ftm
##ftn
##fto
##ftp
##ftq
##ftr
##fts
##ftt
##ftu
##ftv
##ftw
##ftx
##fty
##ftz
##fua
##fub
##fuc
##fud
##fue
##fuf
##fug
##fuh
##fui
##fuj
##fuk
##fum
##fun
##fuo
##fup
##fuq
##fur
##fus
##fut
##fuu
##fuv
##fuw
##fux
##fuy
##fuz
##fva
##fvb
##fvc
##fvd
##fve
##fvf
##fvg
##fvh
##fvi
##fvj
##fvk
##fvl
##fvm
##fvn
##fvo
##fvp
##fvq
##fvr
##fvs
##fvt
##fvu
##fvv
##fvw
##fvx
##fvy
##fvz
##fwa
##fwb
##fwc
##fwd
##fwe
##fwf
##fwg
##fwh
##fwi
##fwj
##fwk
##fwl
##fwm
##fwn
##fwo
##fwp
##fwq
##fwr
##fws
##fwt
##fwu
##fwv
##fww
##fwx
##fwy
##fwz
##fxa
##fxb
##fxc
##fxd
##fxe
##fxf
##fxg
##fxh
##fxi
##fxj
##fxk
##fxl
##fxm
##fxn
##fxo
##fxp
##fxq
##fxr
##fxs
##fxt
##fxu
##fxv
##fxw
##fxx
##fxy
##fxz
##fya
##fyb
##fyc
##fyd
##fye
##fyf
##fyg
##fyh
##fyi
##fyj
##fyk
##fyl
##fym
##fyn
##fyo
##fyp
##fyq
##fyr
##fys
##fyt
##fyu
##fyv
##fyw
##fyx
##fyy
##fyz
##fza
##fzb
##fzc
##fzd
##fze
##fzf
##fzg
##fzh
##fzi
##fzj
##fzk
##fzl
##fzm
##fzn
##fzo
##fzp
##fzq
##fzr
##fzs
##fzt
##fzu
##fzv
##fzw
##fzx
##fzy
##fzz
##gaa
##gab
##gac
##gad
##gae
##gaf
##gag
##gah
##gai
##gaj
##gak
##gal
##gam
##gan
##gao
##gap
##gaq
##gar
##gas
##gat
##gau
##gav
##gaw
##gax
##gay
##gaz
##gba
##gbb
##gbc
##gbd
##gbe
##gbf
##gbg
##gbh
##gbi
##gbj
##gbk
##gbl
##gbm
##gbn
##gbo
##gbp
##gbq
##gbr
##gbs
##gbt
##gbu
##gbv
##gbw
##gbx
##gby
##gbz
##gca
##gcb
##gcc
##gcd
##gce
##gcf
##gcg
##gch
##gci
##gcj
##gck
##gcl
##gcm
##gcn
##gco
##gcp
##gcq
##gcr
##gcs
##gct
##gcu
##gcv
##gcw
##gcx
##gcy
##gcz
##gda
##gdb
##gdc
##gdd
##gde
##gdf
##gdg
##gdh
##gdi
##gdj
##gdk
##gdl
##gdm
##gdn
##gdo
##gdp
##gdq
##gdr
##gds
##gdt
##gdu
##gdv
##gdw
##gdx
##gdy
##gdz
##gea
##geb
##gec
##ged
##gee
##gef
##geg
##geh
##gei
##gej
##gek
##gel
##gem
##gen
##geo
##gep
##geq
##ger
##ges
##get
##geu
##gev
##gew
##gex
##gey
##gez
##gfa
##gfb
##gfc
##gfd
##gfe
##gff
##gfg
##gfh
##gfi
##gfj
##gfk
##gfl
##gfm
##gfn
##gfo
##gfp
##gfq
##gfr
##gfs
##gft
##gfu
##gfv
##gfw
##gfx
##gfy
##gfz
##gga
##ggb
##ggc
##ggd
##gge
##ggf
##ggg
##ggh
##ggi
##ggj
##ggk
##ggl
##ggm
##ggn
##ggo
##ggp
##ggq
##ggr
##ggs
##ggt
##ggu
##ggv
##ggw
##ggx
##ggy
##ggz
##gha
##ghb
##ghc
##ghd
##ghe
##ghf
##ghg
##ghh
##ghi
##ghj
##ghk
##ghl
##ghm
##ghn
##gho
##ghp
##ghq
##ghr
##ghs
##ght
##ghu
##ghv
##ghw
##ghx
##ghy
##ghz
##gia
##gib
##gic
##gid
##gie
##gif
##gig
##gih
##gii
##gij
##gik
##gil
##gim
##gin
##gio
##gip
##giq
##gir
##gis
##git
##giu
##giv
##giw
##gix
##giy
##giz
##gja
##gjb
##gjc
##gjd
##gje
##gjf
##gjg
##gjh
##gji
##gjj
##gjk
##gjl
##gjm
##gjn
##gjo
##gjp
##gjq
##gjr
##gjs
##gjt
##gju
##gjv
##gjw
##gjx
##gjy
##gjz
##gka
##gkb
##gkc
##gkd
##gke
##gkf
##gkg
##gkh
##gki
##gkj
##gkk
##gkl
##gkm
##gkn
##gko
##gkp
##gkq
##gkr
##gks
##gkt
##gku
##gkv
##gkw
##gkx
##gky
##gkz
##gla
##glb
##glc
##gld
##gle
##glf
##glg
##glh
##gli
##glj
##glk
##gll
##glm
##gln
##glo
##glp
##glq
##glr
##gls
##glt
##glu
##glv
##glw
##glx
##gly
##glz
##gma
##gmb
##gmc
##gmd
##gme
##gmf
##gmg
##gmh
##gmi
##gmj
##gmk
##gml
##gmm
##gmn
##gmo
##gmp
##gmq
##gmr
##gms
##gmt
##gmu
##gmv
##gmw
##gmx
##gmy
##gmz
##gna
##gnb
##gnc
##gnd
##gne
##gnf
##gng
##gnh
##gni
##gnj
##gnk
##gnl
##gnm
##gnn
##gno
##gnp
##gnq
##gnr
##gns
##gnt
##gnu
##gnv
##gnw
##gnx
##gny
##gnz
##goa
##gob
##goc
##god
##goe
##gof
##gog
##goh
##goi
##goj
##gok
##gol
##gom
##gon
##goo
##gop
##goq
##gor
##gos
##got
##gou
##gov
##gow
##gox
##goy
##goz
##gpa
##gpb
##gpc
##gpd
##gpe
##gpf
##gpg
##gph
##gpi
##gpj
##gpk
##gpl
##gpm
##gpn
##gpo
##gpp
##gpq
##gpr
##gps
##gpt
##gpu
##gpv
##gpw
##gpx
##gpy
##gpz
##gqa
##gqb
##gqc
##gqd
##gqe
##gqf
##gqg
##gqh
##gqi
##gqj
##gqk
##gql
##gqm
##gqn
##gqo
##gqp
##gqq
##gqr
##gqs
##gqt
##gqu
##gqv
##gqw
##gqx
##gqy
##gqz
##gra
##grb
##grc
##grd
##gre
##grf
##grg
##grh
##gri
##grj
##grk
##grl
##grm
##grn
##gro
##grp
##grq
##grr
##grs
##grt
##gru
##grv
##grw
##grx
##gry
##grz
##gsa
##gsb
##gsc
##gsd
##gse
##gsf
##gsg
##gsh
##gsi
##gsj
##gsk
##gsl
##gsm
##gsn
##gso
##gsp
##gsq
##gsr
##gss
##gst
##gsu
##gsv
##gsw
##gsx
##gsy
##gsz
##gta
##gtb
##gtc
##gtd
##gte
##gtf
##gtg
##gth
##gti
##gtj
##gtk
##gtl
##gtm
##gtn
##gto
##gtp
##gtq
##gtr
##gts
##gtt
##gtu
##gtv
##gtw
##gtx
##gty
##gtz
##gua
##gub
##guc
##gud
##gue
##guf
##gug
##guh
##gui
##guj
##guk
##gul
##gum
##gun
##guo
##gup
##guq
##gur
##gus
##gut
##guu
##guv
##guw
##gux
##guy
##guz
##gva
##gvb
##gvc
##gvd
##gve
##gvf
##gvg
##gvh
##gvi
##gvj
##gvk
##gvl
##gvm
##gvn
##gvo
##gvp
##gvq
##gvr
##gvs
##gvt
##gvu
##gvv
##gvw
##gvx
##gvy
##gvz
##gwa
##gwb
##gwc
##gwd
##gwe
##gwf
##gwg
##gwh
##gwi
##gwj
##gwk
##gwl
##gwm
##gwn
##gwo
##gwp
##gwq
##gwr
##gws
##gwt
##gwu
##gwv
##gww
##gwx
##gwy
##gwz
##gxa
##gxb
##gxc
##gxd
##gxe
##gxf
##gxg
##gxh
##gxi
##gxj
##gxk
##gxl
##gxm
##gxn
##gxo
##gxp
##gxq
##gxr
##gxs
##gxt
##gxu
##gxv
##gxw
##gxx
##gxy
##gxz
##gya
##gyb
##gyc
##gyd
##gye
##gyf
##gyg
##gyh
##gyi
##gyj
##gyk
##gyl
##gym
##gyn
##gyo
##gyp
##gyq
##gyr
##gys
##gyt
##gyu
##gyv
##gyw
##gyx
##gyy
##gyz
##gza
##gzb
##gzc
##gzd
##gze
##gzf
##gzg
##gzh
##gzi
##gzj
##gzk
##gzl
##gzm
##gzn
##gzo
##gzp
##gzq
##gzr
##gzs
##gzt
##gzu
##gzv
##gzw
##gzx
##gzy
##gzz
##haa
##hab
##hac
##had
##hae
##haf
##hag
##hah
##hai
##haj
##hak
##hal
##ham
##han
##hao
##hap
##haq
##har
##has
##hat
##hau
##hav
##haw
##hax
##hay
##haz
##hba
##hbb
##hbc
##hbd
##hbe
##hbf
##hbg
##hbh
##hbi
##hbj
##hbk
##hbl
##hbm
##hbn
##hbo
##hbp
##hbq
##hbr
##hbs
##hbt
##hbu
##hbv
##hbw
##hbx
##hby
##hbz
##hca
##hcb
##hcc
##hcd
##hce
##hcf
##hcg
##hch
##hci
##hcj
##hck
##hcl
##hcm
##hcn
##hco
##hcp
##hcq
##hcr
##hcs
##hct
##hcu
##hcv
##hcw
##hcx
##hcy
##hcz
##hda
##hdb
##hdc
##hdd
##hde
##hdf
##hdg
##hdh
##hdi
##hdj
##hdk
##hdl
##hdm
##hdn
##hdo
##hdp
##hdq
##hdr
##hds
##hdt
##hdu
##hdv
##hdw
##hdx
##hdy
##hdz
##hea
##heb
##hec
##hed
##hee
##hef
##heg
##heh
##hei
##hej
##hek
##hel
##hem
##hen
##heo
##hep
##heq
##her
##hes
##het
##heu
##hev
##hew
##hex
##hey
##hez
##hfa
##hfb
##hfc
##hfd
##hfe
##hff
##hfg
##hfh
##hfi
##hfj
##hfk
##hfl
##hfm
##hfn
##hfo
##hfp
##hfq
##hfr
##hfs
##hft
##hfu
##hfv
##hfw
##hfx
##hfy
##hfz
##hga
##hgb
##hgc
##hgd
##hge
##hgf
##hgg
##hgh
##hgi
##hgj
##hgk
##hgl
##hgm
##hgn
##hgo
##hgp
##hgq
##hgr
##hgs
##hgt
##hgu
##hgv
##hgw
##hgx
##hgy
##hgz
##hha
##hhb
##hhc
##hhd
##hhe
##hhf
##hhg
##hhh
##hhi
##hhj
##hhk
##hhl
##hhm
##hhn
##hho
##hhp
##hhq
##hhr
##hhs
##hht
##hhu
##hhv
##hhw
##hhx
##hhy
##hhz
##hia
##hib
##hic
##hid
##hie
##hif
##hig
##hih
##hii
##hij
##hik
##hil
##him
##hin
##hio
##hip
##hiq
##hir
##his
##hit
##hiu
##hiv
##hiw
##hix
##hiy
##hiz
##hja
##hjb
##hjc
##hjd
##hje
##hjf
##hjg
##hjh
##hji
##hjj
##hjk
##hjl
##hjm
##hjn
##hjo
##hjp
##hjq
##hjr
##hjs
##hjt
##hju
##hjv
##hjw
##hjx
##hjy
##hjz
##hka
##hkb
##hkc
##hkd
##hke
##hkf
##hkg
##hkh
##hki
##hkj
##hkk
##hkl
##hkm
##hkn
##hko
##hkp
##hkq
##hkr
##hks
##hkt
##hku
##hkv
##hkw
##hkx
##hky
##hkz
##hla
##hlb
##hlc
##hld
##hle
##hlf
##hlg
##hlh
##hli
##hlj
##hlk
##hll
##hlm
##hln
##hlo
##hlp
##hlq
##hlr
##hls
##hlt
##hlu
##hlv
##hlw
##hlx
##hly
##hlz
##hma
##hmb
##hmc
##hmd
##hme
##hmf
##hmg
##hmh
##hmi
##hmj
##hmk
##hml
##hmm
##hmn
##hmo
##hmp
##hmq
##hmr
##hms
##hmt
##hmu
##hmv
##hmw
##hmx
##hmy
##hmz
##hna
##hnb
##hnc
##hnd
##hne
##hnf
##hng
##hnh
##hni
##hnj
##hnk
##hnl
##hnm
##hnn
##hno
##hnp
##hnq
##hnr
##hns
##hnt
##hnu
##hnv
##hnw
##hnx
##hny
##hnz
##hoa
##hob
##hoc
##hod
##hoe
##hof
##hog
##hoh
##hoi
##hoj
##hok
##hol
##hom
##hon
##hoo
##hop
##hoq
##hor
##hos
##hot
##hou
##hov
##how
##hox
##hoy
##hoz
##hpa
##hpb
##hpc
##hpd
##hpe
##hpf
##hpg
##hph
##hpi
##hpj
##hpk
##hpl
##hpm
##hpn
##hpo
##hpp
##hpq
##hpr
##hps
##hpt
##hpu
##hpv
##hpw
##hpx
##hpy
##hpz
##hqa
##hqb
##hqc
##hqd
##hqe
##hqf
##hqg
##hqh
##hqi
##hqj
##hqk
##hql
##hqm
##hqn
##hqo
##hqp
##hqq
##hqr
##hqs
##hqt
##hqu
##hqv
##hqw
##hqx
##hqy
##hqz
##hra
##hrb
##hrc
##hrd
##hre
##hrf
##hrg
##hrh
##hri
##hrj
##hrk
##hrl
##hrm
##hrn
##hro
##hrp
##hrq
##hrr
##hrs
##hrt
##hru
##hrv
##hrw
##hrx
##hry
##hrz
##hsa
##hsb
##hsc
##hsd
##hse
##hsf
##hsg
##hsh
##hsi
##hsj
##hsk
##hsl
##hsm
##hsn
##hso
##hsp
##hsq
##hsr
##hss
##hst
##hsu
##hsv
##hsw
##hsx
##hsy
##hsz
##hta
##htb
##htc
##htd
##hte
##htf
##htg
##hth
##hti
##htj
##htk
##htl
##htm
##htn
##hto
##htp
##htq
##htr
##hts
##htt
##htu
##htv
##htw
##htx
##hty
##htz
##hua
##hub
##huc
##hud
##hue
##huf
##hug
##huh
##hui
##huj
##huk
##hul
##hum
##hun
##huo
##hup
##huq
##hur
##hus
##hut
##huu
##huv
##huw
##hux
##huy
##huz
##hva
##hvb
##hvc
##hvd
##hve
##hvf
##hvg
##hvh
##hvi
##hvj
##hvk
##hvl
##hvm
##hvn
##hvo
##hvp
##hvq
##hvr
##hvs
##hvt
##hvu
##hvv
##hvw
##hvx
##hvy
##hvz
##hwa
##hwb
##hwc
##hwd
##hwe
##hwf
##hwg
##hwh
##hwi
##hwj
##hwk
##hwl
##hwm
##hwn
##hwo
##hwp
##hwq
##hwr
##hws
##hwt
##hwu
##hwv
##hww
##hwx
##hwy
##hwz
##hxa
##hxb
##hxc
##hxd
##hxe
##hxf
##hxg
##hxh
##hxi
##hxj
##hxk
##hxl
##hxm
##hxn
##hxo
##hxp
##hxq
##hxr
##hxs
##hxt
##hxu
##hxv
##hxw
##hxx
##hxy
##hxz
##hya
##hyb
##hyc
##hyd
##hye
##hyf
##hyg
##hyh
##hyi
##hyj
##hyk
##hyl
##hym
##hyn
##hyo
##hyp
##hyq
##hyr
##hys
##hyt
##hyu
##hyv
##hyw
##hyx
##hyy
##hyz
##hza
##hzb
##hzc
##hzd
##hze
##hzf
##hzg
##hzh
##hzi
##hzj
##hzk
##hzl
##hzm
##hzn
##hzo
##hzp
##hzq
##hzr
##hzs
##hzt
##hzu
##hzv
##hzw
##hzx
##hzy
##hzz
##iaa
##iab
##iac
##iad
##iae
##iaf
##iag
##iah
##iai
##iaj
##iak
##ial
##iam
##ian
##iao
##iap
##iaq
##iar
##ias
##iat
##iau
##iav
##iaw
##iax
##iay
##iaz
##iba
##ibb
##ibc
##ibd
##ibe
##ibf
##ibg
##ibh
##ibi
##ibj
##ibk
##ibl
##ibm
##ibn
##ibo
##ibp
##ibq
##ibr
##ibs
##ibt
##ibu
##ibv
##ibw
##ibx
##iby
##ibz
##ica
##icb
##icc
##icd
##ice
##icf
##icg
##ich
##ici
##icj
##ick
##icl
##icm
##icn
##ico
##icp
##icq
##icr
##ics
##ict
##icu
##icv
##icw
##icx
##icy
##icz
##ida
##idb
##idc
##idd
##ide
##idf
##idg
##idh
##idi
##idj
##idk
##idl
##idm
##idn
##ido
##idp
##idq
##idr
##ids
##idt
##idu
##idv
##idw
##idx
##idy
##idz
##iea
##ieb
##iec
##ied
##iee
##ief
##ieg
##ieh
##iei
##iej
##iek
##iel
##iem
##ien
##ieo
##iep
##ieq
##ier
##ies
##iet
##ieu
##iev
##iew
##iex
##iey
##iez
##ifa
##ifb
##ifc
##ifd
##ife
##iff
##ifg
##ifh
##ifi
##ifj
##ifk
##ifl
##ifm
##ifn
##ifo
##ifp
##ifq
##ifr
##ifs
##ift
##ifu
##ifv
##ifw
##ifx
##ify
##ifz
##iga
##igb
##igc
##igd
##ige
##igf
##igg
##igh
##igi
##igj
##igk
##igl
##igm
##ign
##igo
##igp
##igq
##igr
##igs
##igt
##igu
##igv
##igw
##igx
##igy
##igz
##iha
##ihb
##ihc
##ihd
##ihe
##ihf
##ihg
##ihh
##ihi
##ihj
##ihk
##ihl
##ihm
##ihn
##iho
##ihp
##ihq
##ihr
##ihs
##iht
##ihu
##ihv
##ihw
##ihx
##ihy
##ihz
##iia
##iib
##iic
##iid
##iie
##iif
##iig
##iih
##iii
##iij
##iik
##iil
##iim
##iin
##iio
##iip
##iiq
##iir
##iis
##iit
##iiu
##iiv
##iiw
##iix
##iiy
##iiz
##ija
##ijb
##ijc
##ijd
##ije
##ijf
##ijg
##ijh
##iji
##ijj
##ijk
##ijl
##ijm
##ijn
##ijo
##ijp
##ijq
##ijr
##ijs
##ijt
##iju
##ijv
##ijw
##ijx
##ijy
##ijz
##ika
##ikb
##ikc
##ikd
##ike
##ikf
##ikg
##ikh
##iki
##ikj
##ikk
##ikl
##ikm
##ikn
##iko
##ikp
##ikq
##ikr
##iks
##ikt
##iku
##ikv
##ikw
##ikx
##iky
##ikz
##ila
##ilb
##ilc
##ild
##ile
##ilf
##ilg
##ilh
##ili
##ilj
##ilk
##ill
##ilm
##iln
##ilo
##ilp
##ilq
##ilr
##ils
##ilt
##ilu
##ilv
##ilw
##ilx
##ily
##ilz
##ima
##imb
##imc
##imd
##ime
##imf
##img
##imh
##imi
##imj
##imk
##iml
##imm
##imn
##imo
##imp
##imq
##imr
##ims
##imt
##imu
##imv
##imw
##imx
##imy
##imz
##ina
##inb
##inc
##ind
##ine
##inf
##inh
##ini
##inj
##ink
##inl
##inm
##inn
##ino
##inp
##inq
##inr
##ins
##int
##inu
##inv
##inw
##inx
##iny
##inz
##ioa
##iob
##ioc
##iod
##ioe
##iof
##iog
##ioh
##ioi
##ioj
##iok
##iol
##iom
##ion
##ioo
##iop
##ioq
##ior
##ios
##iot
##iou
##iov
##iow
##iox
##ioy
##ioz
##ipa
##ipb
##ipc
##ipd
##ipe
##ipf
##ipg
##iph
##ipi
##ipj
##ipk
##ipl
##ipm
##ipn
##ipo
##ipp
##ipq
##ipr
##ips
##ipt
##ipu
##ipv
##ipw
##ipx
##ipy
##ipz
##iqa
##iqb
##iqc
##iqd
##iqe
##iqf
##iqg
##iqh
##iqi
##iqj
##iqk
##iql
##iqm
##iqn
##iqo
##iqp
##iqq
##iqr
##iqs
##iqt
##iqu
##iqv
##iqw
##iqx
##iqy
##iqz
##ira
##irb
##irc
##ird
##ire
##irf
##irg
##irh
##iri
##irj
##irk
##irl
##irm
##irn
##iro
##irp
##irq
##irr
##irs
##irt
##iru
##irv
##irw
##irx
##iry
##irz
##isa
##isb
##isc
##isd
##ise
##isf
##isg
##ish
##isi
##isj
##isk
##isl
##isn
##iso
##isp
##isq
##isr
##iss
##isu
##isv
##isw
##isx
##isy
##isz
##ita
##itb
##itc
##itd
##ite
##itf
##itg
##ith
##iti
##itj
##itk
##itl
##itm
##itn
##ito
##itp
##itq
##itr
##its
##itt
##itu
##itv
##itw
##itx
##itz
##iua
##iub
##iuc
##iud
##iue
##iuf
##iug
##iuh
##iui
##iuj
##iuk
##iul
##ium
##iun
##iuo
##iup
##iuq
##iur
##ius
##iut
##iuu
##iuv
##iuw
##iux
##iuy
##iuz
##iva
##ivb
##ivc
##ivd
##ivf
##ivg
##ivh
##ivi
##ivj
##ivk
##ivl
##ivm
##ivn
##ivo
##ivp
##ivq
##ivr
##ivs
##ivt
##ivu
##ivv
##ivw
##ivx
##ivy
##ivz
##iwa
##iwb
##iwc
##iwd
##iwe
##iwf
##iwg
##iwh
##iwi
##iwj
##iwk
##iwl
##iwm
##iwn
##iwo
##iwp
##iwq
##iwr
##iws
##iwt
##iwu
##iwv
##iww
##iwx
##iwy
##iwz
##ixa
##ixb
##ixc
##ixd
##ixe
##ixf
##ixg
##ixh
##ixi
##ixj
##ixk
##ixl
##ixm
##ixn
##ixo
##ixp
##ixq
##ixr
##ixs
##ixt
##ixu
##ixv
##ixw
##ixx
##ixy
##ixz
##iya
##iyb
##iyc
##iyd
##iye
##iyf
##iyg
##iyh
##iyi
##iyj
##iyk
##iyl
##iym
##iyn
##iyo
##iyp
##iyq
##iyr
##iys
##iyt
##iyu
##iyv
##iyw
##iyx
##iyy
##iyz
##iza
##izb
##izc
##izd
##izf
##izg
##izh
##izi
##izj
##izk
##izl
##izm
##izn
##izo
##izp
##izq
##izr
##izs
##izt
##izu
##izv
##izw
##izx
##izy
##izz
##jaa
##jab
##jac
##jad
##jae
##jaf
##jag
##jah
##jai
##jaj
##jak
##jal
##jam
##jan
##jao
##jap
##jaq
##jar
##jas
##jat
##jau
##jav
##jaw
##jax
##jay
##jaz
##jba
##jbb
##jbc
##jbd
##jbe
##jbf
##jbg
##jbh
##jbi
##jbj
##jbk
##jbl
##jbm
##jbn
##jbo
##jbp
##jbq
##jbr
##jbs
##jbt
##jbu
##jbv
##jbw
##jbx
##jby
##jbz
##jca
##jcb
##jcc
##jcd
##jce
##jcf
##jcg
##jch
##jci
##jcj
##jck
##jcl
##jcm
##jcn
##jco
##jcp
##jcq
##jcr
##jcs
##jct
##jcu
##jcv
##jcw
##jcx
##jcy
##jcz
##jda
##jdb
##jdc
##jdd
##jde
##jdf
##jdg
##jdh
##jdi
##jdj
##jdk
##jdl
##jdm
##jdn
##jdo
##jdp
##jdq
##jdr
##jds
##jdt
##jdu
##jdv
##jdw
##jdx
##jdy
##jdz
##jea
##jeb
##jec
##jed
##jee
##jef
##jeg
##jeh
##jei
##jej
##jek
##jel
##jem
##jen
##jeo
##jep
##jeq
##jer
##jes
##jet
##jeu
##jev
##jew
##jex
##jey
##jez
##jfa
##jfb
##jfc
##jfd
##jfe
##jff
##jfg
##jfh
##jfi
##jfj
##jfk
##jfl
##jfm
##jfn
##jfo
##jfp
##jfq
##jfr
##jfs
##jft
##jfu
##jfv
##jfw
##jfx
##jfy
##jfz
##jga
##jgb
##jgc
##jgd
##jge
##jgf
##jgg
##jgh
##jgi
##jgj
##jgk
##jgl
##jgm
##jgn
##jgo
##jgp
##jgq
##jgr
##jgs
##jgt
##jgu
##jgv
##jgw
##jgx
##jgy
##jgz
##jha
##jhb
##jhc
##jhd
##jhe
##jhf
##jhg
##jhh
##jhi
##jhj
##jhk
##jhl
##jhm
##jhn
##jho
##jhp
##jhq
##jhr
##jhs
##jht
##jhu
##jhv
##jhw
##jhx
##jhy
##jhz
##jia
##jib
##jic
##jid
##jie
##jif
##jig
##jih
##jii
##jij
##jik
##jil
##jim
##jin
##jio
##jip
##jiq
##jir
##jis
##jit
##jiu
##jiv
##jiw
##jix
##jiy
##jiz
##jja
##jjb
##jjc
##jjd
##jje
##jjf
##jjg
##jjh
##jji
##jjj
##jjk
##jjl
##jjm
##jjn
##jjo
##jjp
##jjq
##jjr
##jjs
##jjt
##jju
##jjv
##jjw
##jjx
##jjy
##jjz
##jka
##jkb
##jkc
##jkd
##jke
##jkf
##jkg
##jkh
##jki
##jkj
##jkk
##jkl
##jkm
##jkn
##jko
##jkp
##jkq
##jkr
##jks
##jkt
##jku
##jkv
##jkw
##jkx
##jky
##jkz
##jla
##jlb
##jlc
##jld
##jle
##jlf
##jlg
##jlh
##jli
##jlj
##jlk
##jll
##jlm
##jln
##jlo
##jlp
##jlq
##jlr
##jls
##jlt
##jlu
##jlv
##jlw
##jlx
##jly
##jlz
##jma
##jmb
##jmc
##jmd
##jme
##jmf
##jmg
##jmh
##jmi
##jmj
##jmk
##jml
##jmm
##jmn
##jmo
##jmp
##jmq
##jmr
##jms
##jmt
##jmu
##jmv
##jmw
##jmx
##jmy
##jmz
##jna
##jnb
##jnc
##jnd
##jne
##jnf
##jng
##jnh
##jni
##jnj
##jnk
##jnl
##jnm
##jnn
##jno
##jnp
##jnq
##jnr
##jns
##jnt
##jnu
##jnv
##jnw
##jnx
##jny
##jnz
##joa
##job
##joc
##jod
##joe
##jof
##jog
##joh
##joi
##joj
##jok
##jol
##jom
##jon
##joo
##jop
##joq
##jor
##jos
##jot
##jou
##jov
##jow
##jox
##joy
##joz
##jpa
##jpb
##jpc
##jpd
##jpe
##jpf
##jpg
##jph
##jpi
##jpj
##jpk
##jpl
##jpm
##jpn
##jpo
##jpp
##jpq
##jpr
##jps
##jpt
##jpu
##jpv
##jpw
##jpx
##jpy
##jpz
##jqa
##jqb
##jqc
##jqd
##jqe
##jqf
##jqg
##jqh
##jqi
##jqj
##jqk
##jql
##jqm
##jqn
##jqo
##jqp
##jqq
##jqr
##jqs
##jqt
##jqu
##jqv
##jqw
##jqx
##jqy
##jqz
##jra
##jrb
##jrc
##jrd
##jre
##jrf
##jrg
##jrh
##jri
##jrj
##jrk
##jrl
##jrm
##jrn
##jro
##jrp
##jrq
##jrr
##jrs
##jrt
##jru
##jrv
##jrw
##jrx
##jry
##jrz
##jsa
##jsb
##jsc
##jsd
##jse
##jsf
##jsg
##jsh
##jsi
##jsj
##jsk
##jsl
##jsm
##jsn
##jso
##jsp
##jsq
##jsr
##jss
##jst
##jsu
##jsv
##jsw
##jsx
##jsy
##jsz
##jta
##jtb
##jtc
##jtd
##jte
##jtf
##jtg
##jth
##jti
##jtj
##jtk
##jtl
##jtm
##jtn
##jto
##jtp
##jtq
##jtr
##jts
##jtt
##jtu
##jtv
##jtw
##jtx
##jty
##jtz
##jua
##jub
##juc
##jud
##jue
##juf
##jug
##juh
##jui
##juj
##juk
##jul
##jum
##jun
##juo
##jup
##juq
##jur
##jus
##jut
##juu
##juv
##juw
##jux
##juy
##juz
##jva
##jvb
##jvc
##jvd
##jve
##jvf
##jvg
##jvh
##jvi
##jvj
##jvk
##jvl
##jvm
##jvn
##jvo
##jvp
##jvq
##jvr
##jvs
##jvt
##jvu
##jvv
##jvw
##jvx
##jvy
##jvz
##jwa
##jwb
##jwc
##jwd
##jwe
##jwf
##jwg
##jwh
##jwi
##jwj
##jwk
##jwl
##jwm
##jwn
##jwo
##jwp
##jwq
##jwr
##jws
##jwt
##jwu
##jwv
##jww
##jwx
##jwy
##jwz
##jxa
##jxb
##jxc
##jxd
##jxe
##jxf
##jxg
##jxh
##jxi
##jxj
##jxk
##jxl
##jxm
##jxn
##jxo
##jxp
##jxq
##jxr
##jxs
##jxt
##jxu
##jxv
##jxw
##jxx
##jxy
##jxz
##jya
##jyb
##jyc
##jyd
##jye
##jyf
##jyg
##jyh
##jyi
##jyj
##jyk
##jyl
##jym
##jyn
##jyo
##jyp
##jyq
##jyr
##jys
##jyt
##jyu
##jyv
##jyw
##jyx
##jyy
##jyz
##jza
##jzb
##jzc
##jzd
##jze
##jzf
##jzg
##jzh
##jzi
##jzj
##jzk
##jzl
##jzm
##jzn
##jzo
##jzp
##jzq
##jzr
##jzs
##jzt
##jzu
##jzv
##jzw
##jzx
##jzy
##jzz
##kaa
##kab
##kac
##kad
##kae
##kaf
##kag
##kah
##kai
##kaj
##kak
##kal
##kam
##kan
##kao
##kap
##kaq
##kar
##kas
##kat
##kau
##kav
##kaw
##kax
##kay
##kaz
##kba
##kbb
##kbc
##kbd
##kbe
##kbf
##kbg
##kbh
##kbi
##kbj
##kbk
##kbl
##kbm
##kbn
##kbo
##kbp
##kbq
##kbr
##kbs
##kbt
##kbu
##kbv
##kbw
##kbx
##kby
##kbz
##kca
##kcb
##kcc
##kcd
##kce
##kcf
##kcg
##kch
##kci
##kcj
##kck
##kcl
##kcm
##kcn
##kco
##kcp
##kcq
##kcr
##kcs
##kct
##kcu
##kcv
##kcw
##kcx
##kcy
##kcz
##kda
##kdb
##kdc
##kdd
##kde
##kdf
##kdg
##kdh
##kdi
##kdj
##kdk
##kdl
##kdm
##kdn
##kdo
##kdp
##kdq
##kdr
##kds
##kdt
##kdu
##kdv
##kdw
##kdx
##kdy
##kdz
##kea
##keb
##kec
##ked
##kee
##kef
##keg
##keh
##kei
##kej
##kek
##kel
##kem
##ken
##keo
##kep
##keq
##ker
##kes
##ket
##keu
##kev
##kew
##kex
##key
##kez
##kfa
##kfb
##kfc
##kfd
##kfe
##kff
##kfg
##kfh
##kfi
##kfj
##kfk
##kfl
##kfm
##kfn
##kfo
##kfp
##kfq
##kfr
##kfs
##kft
##kfu
##kfv
##kfw
##kfx
##kfy
##kfz
##kga
##kgb
##kgc
##kgd
##kge
##kgf
##kgg
##kgh
##kgi
##kgj
##kgk
##kgl
##kgm
##kgn
##kgo
##kgp
##kgq
##kgr
##kgs
##kgt
##kgu
##kgv
##kgw
##kgx
##kgy
##kgz
##kha
##khb
##khc
##khd
##khe
##khf
##khg
##khh
##khi
##khj
##khk
##khl
##khm
##khn
##kho
##khp
##khq
##khr
##khs
##kht
##khu
##khv
##khw
##khx
##khy
##khz
##kia
##kib
##kic
##kid
##kie
##kif
##kig
##kih
##kii
##kij
##kik
##kil
##kim
##kin
##kio
##kip
##kiq
##kir
##kis
##kit
##kiu
##kiv
##kiw
##kix
##kiy
##kiz
##kja
##kjb
##kjc
##kjd
##kje
##kjf
##kjg
##kjh
##kji
##kjj
##kjk
##kjl
##kjm
##kjn
##kjo
##kjp
##kjq
##kjr
##kjs
##kjt
##kju
##kjv
##kjw
##kjx
##kjy
##kjz
##kka
##kkb
##kkc
##kkd
##kke
##kkf
##kkg
##kkh
##kki
##kkj
##kkk
##kkl
##kkm
##kkn
##kko
##kkp
##kkq
##kkr
##kks
##kkt
##kku
##kkv
##kkw
##kkx
##kky
##kkz
##kla
##klb
##klc
##kld
##kle
##klf
##klg
##klh
##kli
##klj
##klk
##kll
##klm
##kln
##klo
##klp
##klq
##klr
##kls
##klt
##klu
##klv
##klw
##klx
##kly
##klz
##kma
##kmb
##kmc
##kmd
##kme
##kmf
##kmg
##kmh
##kmi
##kmj
##kmk
##kml
##kmm
##kmn
##kmo
##kmp
##kmq
##kmr
##kms
##kmt
##kmu
##kmv
##kmw
##kmx
##kmy
##kmz
##kna
##knb
##knc
##knd
##kne
##knf
##kng
##knh
##kni
##knj
##knk
##knl
##knm
##knn
##kno
##knp
##knq
##knr
##kns
##knt
##knu
##knv
##knw
##knx
##kny
##knz
##koa
##kob
##koc
##kod
##koe
##kof
##kog
##koh
##koi
##koj
##kok
##kol
##kom
##kon
##koo
##kop
##koq
##kor
##kos
##kot
##kou
##kov
##kow
##kox
##koy
##koz
##kpa
##kpb
##kpc
##kpd
##kpe
##kpf
##kpg
##kph
##kpi
##kpj
##kpk
##kpl
##kpm
##kpn
##kpo
##kpp
##kpq
##kpr
##kps
##kpt
##kpu
##kpv
##kpw
##kpx
##kpy
##kpz
##kqa
##kqb
##kqc
##kqd
##kqe
##kqf
##kqg
##kqh
##kqi
##kqj
##kqk
##kql
##kqm
##kqn
##kqo
##kqp
##kqq
##kqr
##kqs
##kqt
##kqu
##kqv
##kqw
##kqx
##kqy
##kqz
##kra
##krb
##krc
##krd
##kre
##krf
##krg
##krh
##kri
##krj
##krk
##krl
##krm
##krn
##kro
##krp
##krq
##krr
##krs
##krt
##kru
##krv
##krw
##krx
##kry
##krz
##ksa
##ksb
##ksc
##ksd
##kse
##ksf
##ksg
##ksh
##ksi
##ksj
##ksk
##ksl
##ksm
##ksn
##kso
##ksp
##ksq
##ksr
##kss
##kst
##ksu
##ksv
##ksw
##ksx
##ksy
##ksz
##kta
##ktb
##ktc
##ktd
##kte
##ktf
##ktg
##kth
##kti
##ktj
##ktk
##ktl
##ktm
##ktn
##kto
##ktp
##ktq
##ktr
##kts
##ktt
##ktu
##ktv
##ktw
##ktx
##kty
##ktz
##kua
##kub
##kuc
##kud
##kue
##kuf
##kug
##kuh
##kui
##kuj
##kuk
##kul
##kum
##kun
##kuo
##kup
##kuq
##kur
##kus
##kut
##kuu
##kuv
##kuw
##kux
##kuy
##kuz
##kva
##kvb
##kvc
##kvd
##kve
##kvf
##kvg
##kvh
##kvi
##kvj
##kvk
##kvl
##kvm
##kvn
##kvo
##kvp
##kvq
##kvr
##kvs
##kvt
##kvu
##kvv
##kvw
##kvx
##kvy
##kvz
##kwa
##kwb
##kwc
##kwd
##kwe
##kwf
##kwg
##kwh
##kwi
##kwj
##kwk
##kwl
##kwm
##kwn
##kwo
##kwp
##kwq
##kwr
##kws
##kwt
##kwu
##kwv
##kww
##kwx
##kwy
##kwz
##kxa
##kxb
##kxc
##kxd
##kxe
##kxf
##kxg
##kxh
##kxi
##kxj
##kxk
##kxl
##kxm
##kxn
##kxo
##kxp
##kxq
##kxr
##kxs
##kxt
##kxu
##kxv
##kxw
##kxx
##kxy
##kxz
##kya
##kyb
##kyc
##kyd
##kye
##kyf
##kyg
##kyh
##kyi
##kyj
##kyk
##kyl
##kym
##kyn
##kyo
##kyp
##kyq
##kyr
##kys
##kyt
##kyu
##kyv
##kyw
##kyx
##kyy
##kyz
##kza
##kzb
##kzc
##kzd
##kze
##kzf
##kzg
##kzh
##kzi
##kzj
##kzk
##kzl
##kzm
##kzn
##kzo
##kzp
##kzq
##kzr
##kzs
##kzt
##kzu
##kzv
##kzw
##kzx
##kzy
##kzz
##laa
##lab
##lac
##lad
##lae
##laf
##lag
##lah
##lai
##laj
##lak
##lal
##lam
##lan
##lao
##lap
##laq
##lar
##las
##lat
##lau
##lav
##law
##lax
##lay
##laz
##lba
##lbb
##lbc
##lbd
##lbe
##lbf
##lbg
##lbh
##lbi
##lbj
##lbk
##lbl
##lbm
##lbn
##lbo
##lbp
##lbq
##lbr
##lbs
##lbt
##lbu
##lbv
##lbw
##lbx
##lby
##lbz
##lca
##lcb
##lcc
##lcd
##lce
##lcf
##lcg
##lch
##lci
##lcj
##lck
##lcl
##lcm
##lcn
##lco
##lcp
##lcq
##lcr
##lcs
##lct
##lcu
##lcv
##lcw
##lcx
##lcy
##lcz
##lda
##ldb
##ldc
##ldd
##lde
##ldf
##ldg
##ldh
##ldi
##ldj
##ldk
##ldl
##ldm
##ldn
##ldo
##ldp
##ldq
##ldr
##lds
##ldt
##ldu
##ldv
##ldw
##ldx
##ldy
##ldz
##lea
##leb
##lec
##led
##lee
##lef
##leg
##leh
##lei
##lej
##lek
##lel
##lem
##len
##leo
##lep
##leq
##ler
##les
##let
##leu
##lev
##lew
##lex
##ley
##lez
##lfa
##lfb
##lfc
##lfd
##lfe
##lff
##lfg
##lfh
##lfi
##lfj
##lfk
##lfl
##lfm
##lfn
##lfo
##lfp
##lfq
##lfr
##lfs
##lft
##lfu
##lfv
##lfw
##lfx
##lfy
##lfz
##lga
##lgb
##lgc
##lgd
##lge
##lgf
##lgg
##lgh
##lgi
##lgj
##lgk
##lgl
##lgm
##lgn
##lgo
##lgp
##lgq
##lgr
##lgs
##lgt
##lgu
##lgv
##lgw
##lgx
##lgy
##lgz
##lha
##lhb
##lhc
##lhd
##lhe
##lhf
##lhg
##lhh
##lhi
##lhj
##lhk
##lhl
##lhm
##lhn
##lho
##lhp
##lhq
##lhr
##lhs
##lht
##lhu
##lhv
##lhw
##lhx
##lhy
##lhz
##lia
##lib
##lic
##lid
##lie
##lif
##lig
##lih
##lii
##lij
##lik
##lil
##lim
##lin
##lio
##lip
##liq
##lir
##lis
##lit
##liu
##liv
##liw
##lix
##liy
##liz
##lja
##ljb
##ljc
##ljd
##lje
##ljf
##ljg
##ljh
##lji
##ljj
##ljk
##ljl
##ljm
##ljn
##ljo
##ljp
##ljq
##ljr
##ljs
##ljt
##lju
##ljv
##ljw
##ljx
##ljy
##ljz
##lka
##lkb
##lkc
##lkd
##lke
##lkf
##lkg
##lkh
##lki
##lkj
##lkk
##lkl
##lkm
##lkn
##lko
##lkp
##lkq
##lkr
##lks
##lkt
##lku
##lkv
##lkw
##lkx
##lky
##lkz
##lla
##llb
##llc
##lld
##lle
##llf
##llg
##llh
##lli
##llj
##llk
##lll
##llm
##lln
##llo
##llp
##llq
##llr
##lls
##llt
##llu
##llv
##llw
##llx
##lly
##llz
##lma
##lmb
##lmc
##lmd
##lme
##lmf
##lmg
##lmh
##lmi
##lmj
##lmk
##lml
##lmm
##lmn
##lmo
##lmp
##lmq
##lmr
##lms
##lmt
##lmu
##lmv
##lmw
##lmx
##lmy
##lmz
##lna
##lnb
##lnc
##lnd
##lne
##lnf
##lng
##lnh
##lni
##lnj
##lnk
##lnl
##lnm
##lnn
##lno
##lnp
##lnq
##lnr
##lns
##lnt
##lnu
##lnv
##lnw
##lnx
##lny
##lnz
##loa
##lob
##loc
##lod
##loe
##lof
##log
##loh
##loi
##loj
##lok
##lol
##lom
##lon
##loo
##lop
##loq
##lor
##los
##lot
##lou
##lov
##low
##lox
##loy
##loz
##lpa
##lpb
##lpc
##lpd
##lpe
##lpf
##lpg
##lph
##lpi
##lpj
##lpk
##lpl
##lpm
##lpn
##lpo
##lpp
##lpq
##lpr
##lps
##lpt
##lpu
##lpv
##lpw
##lpx
##lpy
##lpz
##lqa
##lqb
##lqc
##lqd
##lqe
##lqf
##lqg
##lqh
##lqi
##lqj
##lqk
##lql
##lqm
##lqn
##lqo
##lqp
##lqq
##lqr
##lqs
##lqt
##lqu
##lqv
##lqw
##lqx
##lqy
##lqz
##lra
##lrb
##lrc
##lrd
##lre
##lrf
##lrg
##lrh
##lri
##lrj
##lrk
##lrl
##lrm
##lrn
##lro
##lrp
##lrq
##lrr
##lrs
##lrt
##lru
##lrv
##lrw
##lrx
##lry
##lrz
##lsa
##lsb
##lsc
##lsd
##lse
##lsf
##lsg
##lsh
##lsi
##lsj
##lsk
##lsl
##lsm
##lsn
##lso
##lsp
##lsq
##lsr
##lss
##lst
##lsu
##lsv
##lsw
##lsx
##lsy
##lsz
##lta
##ltb
##ltc
##ltd
##lte
##ltf
##ltg
##lth
##lti
##ltj
##ltk
##ltl
##ltm
##ltn
##lto
##ltp
##ltq
##ltr
##lts
##ltt
##ltu
##ltv
##ltw
##ltx
##lty
##ltz
##lua
##lub
##luc
##lud
##lue
##luf
##lug
##luh
##lui
##luj
##luk
##lul
##lum
##lun
##luo
##lup
##luq
##lur
##lus
##lut
##luu
##luv
##luw
##lux
##luy
##luz
##lva
##lvb
##lvc
##lvd
##lve
##lvf
##lvg
##lvh
##lvi
##lvj
##lvk
##lvl
##lvm
##lvn
##lvo
##lvp
##lvq
##lvr
##lvs
##lvt
##lvu
##lvv
##lvw
##lvx
##lvy
##lvz
##lwa
##lwb
##lwc
##lwd
##lwe
##lwf
##lwg
##lwh
##lwi
##lwj
##lwk
##lwl
##lwm
##lwn
##lwo
##lwp
##lwq
##lwr
##lws
##lwt
##lwu
##lwv
##lww
##lwx
##lwy
##lwz
##lxa
##lxb
##lxc
##lxd
##lxe
##lxf
##lxg
##lxh
##lxi
##lxj
##lxk
##lxl
##lxm
##lxn
##lxo
##lxp
##lxq
##lxr
##lxs
##lxt
##lxu
##lxv
##lxw
##lxx
##lxy
##lxz
##lya
##lyb
##lyc
##lyd
##lye
##lyf
##lyg
##lyh
##lyi
##lyj
##lyk
##lyl
##lym
##lyn
##lyo
##lyp
##lyq
##lyr
##lys
##lyt
##lyu
##lyv
##lyw
##lyx
##lyy
##lyz
##lza
##lzb
##lzc
##lzd
##lze
##lzf
##lzg
##lzh
##lzi
##lzj
##lzk
##lzl
##lzm
##lzn
##lzo
##lzp
##lzq
##lzr
##lzs
##lzt
##lzu
##lzv
##lzw
##lzx
##lzy
##lzz
##maa
##mab
##mac
##mad
##mae
##maf
##mag
##mah
##mai
##maj
##mak
##mal
##mam
##man
##mao
##map
##maq
##mar
##mas
##mat
##mau
##mav
##maw
##max
##may
##maz
##mba
##mbb
##mbc
##mbd
##mbe
##mbf
##mbg
##mbh
##mbi
##mbj
##mbk
##mbl
##mbm
##mbn
##mbo
##mbp
##mbq
##mbr
##mbs
##mbt
##mbu
##mbv
##mbw
##mbx
##mby
##mbz
##mca
##mcb
##mcc
##mcd
##mce
##mcf
##mcg
##mch
##mci
##mcj
##mck
##mcl
##mcm
##mcn
##mco
##mcp
##mcq
##mcr
##mcs
##mct
##mcu
##mcv
##mcw
##mcx
##mcy
##mcz
##mda
##mdb
##mdc
##mdd
##mde
##mdf
##mdg
##mdh
##mdi
##mdj
##mdk
##mdl
##mdm
##mdn
##mdo
##mdp
##mdq
##mdr
##mds
##mdt
##mdu
##mdv
##mdw
##mdx
##mdy
##mdz
##mea
##meb
##mec
##med
##mee
##mef
##meg
##meh
##mei
##mej
##mek
##mel
##mem
##men
##meo
##mep
##meq
##mer
##mes
##met
##meu
##mev
##mew
##mex
##mey
##mez
##mfa
##mfb
##mfc
##mfd
##mfe
##mff
##mfg
##mfh
##mfi
##mfj
##mfk
##mfl
##mfm
##mfn
##mfo
##mfp
##mfq
##mfr
##mfs
##mft
##mfu
##mfv
##mfw
##mfx
##mfy
##mfz
##mga
##mgb
##mgc
##mgd
##mge
##mgf
##mgg
##mgh
##mgi
##mgj
##mgk
##mgl
##mgm
##mgn
##mgo
##mgp
##mgq
##mgr
##mgs
##mgt
##mgu
##mgv
##mgw
##mgx
##mgy
##mgz
##mha
##mhb
##mhc
##mhd
##mhe
##mhf
##mhg
##mhh
##mhi
##mhj
##mhk
##mhl
##mhm
##mhn
##mho
##mhp
##mhq
##mhr
##mhs
##mht
##mhu
##mhv
##mhw
##mhx
##mhy
##mhz
##mia
##mib
##mic
##mid
##mie
##mif
##mig
##mih
##mii
##mij
##mik
##mil
##mim
##min
##mio
##mip
##miq
##mir
##mis
##mit
##miu
##miv
##miw
##mix
##miy
##miz
##mja
##mjb
##mjc
##mjd
##mje
##mjf
##mjg
##mjh
##mji
##mjj
##mjk
##mjl
##mjm
##mjn
##mjo
##mjp
##mjq
##mjr
##mjs
##mjt
##mju
##mjv
##mjw
##mjx
##mjy
##mjz
##mka
##mkb
##mkc
##mkd
##mke
##mkf
##mkg
##mkh
##mki
##mkj
##mkk
##mkl
##mkm
##mkn
##mko
##mkp
##mkq
##mkr
##mks
##mkt
##mku
##mkv
##mkw
##mkx
##mky
##mkz
##mla
##mlb
##mlc
##mld
##mle
##mlf
##mlg
##mlh
##mli
##mlj
##mlk
##mll
##mlm
##mln
##mlo
##mlp
##mlq
##mlr
##mls
##mlt
##mlu
##mlv
##mlw
##mlx
##mly
##mlz
##mma
##mmb
##mmc
##mmd
##mme
##mmf
##mmg
##mmh
##mmi
##mmj
##mmk
##mml
##mmm
##mmn
##mmo
##mmp
##mmq
##mmr
##mms
##mmt
##mmu
##mmv
##mmw
##mmx
##mmy
##mmz
##mna
##mnb
##mnc
##mnd
##mne
##mnf
##mng
##mnh
##mni
##mnj
##mnk
##mnl
##mnm
##mnn
##mno
##mnp
##mnq
##mnr
##mns
##mnt
##mnu
##mnv
##mnw
##mnx
##mny
##mnz
##moa
##mob
##moc
##mod
##moe
##mof
##mog
##moh
##moi
##moj
##mok
##mol
##mom
##mon
##moo
##mop
##moq
##mor
##mos
##mot
##mou
##mov
##mow
##mox
##moy
##moz
##mpa
##mpb
##mpc
##mpd
##mpe
##mpf
##mpg
##mph
##mpi
##mpj
##mpk
##mpl
##mpm
##mpn
##mpo
##mpp
##mpq
##mpr
##mps
##mpt
##mpu
##mpv
##mpw
##mpx
##mpy
##mpz
##mqa
##mqb
##mqc
##mqd
##mqe
##mqf
##mqg
##mqh
##mqi
##mqj
##mqk
##mql
##mqm
##mqn
##mqo
##mqp
##mqq
##mqr
##mqs
##mqt
##mqu
##mqv
##mqw
##mqx
##mqy
##mqz
##mra
##mrb
##mrc
##mrd
##mre
##mrf
##mrg
##mrh
##mri
##mrj
##mrk
##mrl
##mrm
##mrn
##mro
##mrp
##mrq
##mrr
##mrs
##mrt
##mru
##mrv
##mrw
##mrx
##mry
##mrz
##msa
##msb
##msc
##msd
##mse
##msf
##msg
##msh
##msi
##msj
##msk
##msl
##msm
##msn
##mso
##msp
##msq
##msr
##mss
##mst
##msu
##msv
##msw
##msx
##msy
##msz
##mta
##mtb
##mtc
##mtd
##mte
##mtf
##mtg
##mth
##mti
##mtj
##mtk
##mtl
##mtm
##mtn
##mto
##mtp
##mtq
##mtr
##mts
##mtt
##mtu
##mtv
##mtw
##mtx
##mty
##mtz
##mua
##mub
##muc
##mud
##mue
##muf
##mug
##muh
##mui
##muj
##muk
##mul
##mum
##mun
##muo
##mup
##muq
##mur
##mus
##mut
##muu
##muv
##muw
##mux
##muy
##muz
##mva
##mvb
##mvc
##mvd
##mve
##mvf
##mvg
##mvh
##mvi
##mvj
##mvk
##mvl
##mvm
##mvn
##mvo
##mvp
##mvq
##mvr
##mvs
##mvt
##mvu
##mvv
##mvw
##mvx
##mvy
##mvz
##mwa
##mwb
##mwc
##mwd
##mwe
##mwf
##mwg
##mwh
##mwi
##mwj
##mwk
##mwl
##mwm
##mwn
##mwo
##mwp
##mwq
##mwr
##mws
##mwt
##mwu
##mwv
##mww
##mwx
##mwy
##mwz
##mxa
##mxb
##mxc
##mxd
##mxe
##mxf
##mxg
##mxh
##mxi
##mxj
##mxk
##mxl
##mxm
##mxn
##mxo
##mxp
##mxq
##mxr
##mxs
##mxt
##mxu
##mxv
##mxw
##mxx
##mxy
##mxz
##mya
##myb
##myc
##myd
##mye
##myf
##myg
##myh
##myi
##myj
##myk
##myl
##mym
##myn
##myo
##myp
##myq
##myr
##mys
##myt
##myu
##myv
##myw
##myx
##myy
##myz
##mza
##mzb
##mzc
##mzd
##mze
##mzf
##mzg
##mzh
##mzi
##mzj
##mzk
##mzl
##mzm
##mzn
##mzo
##mzp
##mzq
##mzr
##mzs
##mzt
##mzu
##mzv
##mzw
##mzx
##mzy
##mzz
##naa
##nab
##nac
##nad
##nae
##naf
##nag
##nah
##nai
##naj
##nak
##nal
##nam
##nan
##nao
##nap
##naq
##nar
##nas
##nat
##nau
##nav
##naw
##nax
##nay
##naz
##nba
##nbb
##nbc
##nbd
##nbe
##nbf
##nbg
##nbh
##nbi
##nbj
##nbk
##nbl
##nbm
##nbn
##nbo
##nbp
##nbq
##nbr
##nbs
##nbt
##nbu
##nbv
##nbw
##nbx
##nby
##nbz
##nca
##ncb
##ncc
##ncd
##nce
##ncf
##ncg
##nch
##nci
##ncj
##nck
##ncl
##ncm
##ncn
##nco
##ncp
##ncq
##ncr
##ncs
##nct
##ncu
##ncv
##ncw
##ncx
##ncy
##ncz
##nda
##ndb
##ndc
##ndd
##nde
##ndf
##ndg
##ndh
##ndi
##ndj
##ndk
##ndl
##ndm
##ndn
##ndo
##ndp
##ndq
##ndr
##nds
##ndt
##ndu
##ndv
##ndw
##ndx
##ndy
##ndz
##nea
##neb
##nec
##ned
##nee
##nef
##neg
##neh
##nei
##nej
##nek
##nel
##nem
##nen
##neo
##nep
##neq
##ner
##nes
##net
##neu
##nev
##new
##nex
##ney
##nez
##nfa
##nfb
##nfc
##nfd
##nfe
##nff
##nfg
##nfh
##nfi
##nfj
##nfk
##nfl
##nfm
##nfn
##nfo
##nfp
##nfq
##nfr
##nfs
##nft
##nfu
##nfv
##nfw
##nfx
##nfy
##nfz
##nga
##ngb
##ngc
##ngd
##nge
##ngf
##ngg
##ngh
##ngi
##ngj
##ngk
##ngl
##ngm
##ngn
##ngo
##ngp
##ngq
##ngr
##ngs
##ngt
##ngu
##ngv
##ngw
##ngx
##ngy
##ngz
##nha
##nhb
##nhc
##nhd
##nhe
##nhf
##nhg
##nhh
##nhi
##nhj
##nhk
##nhl
##nhm
##nhn
##nho
##nhp
##nhq
##nhr
##nhs
##nht
##nhu
##nhv
##nhw
##nhx
##nhy
##nhz
##nia
##nib
##nic
##nid
##nie
##nif
##nig
##nih
##nii
##nij
##nik
##nil
##nim
##nin
##nio
##nip
##niq
##nir
##nis
##nit
##niu
##niv
##niw
##nix
##niy
##niz
##nja
##njb
##njc
##njd
##nje
##njf
##njg
##njh
##nji
##njj
##njk
##njl
##njm
##njn
##njo
##njp
##njq
##njr
##njs
##njt
##nju
##njv
##njw
##njx
##njy
##njz
##nka
##nkb
##nkc
##nkd
##nke
##nkf
##nkg
##nkh
##nki
##nkj
##nkk
##nkl
##nkm
##nkn
##nko
##nkp
##nkq
##nkr
##nks
##nkt
##nku
##nkv
##nkw
##nkx
##nky
##nkz
##nla
##nlb
##nlc
##nld
##nle
##nlf
##nlg
##nlh
##nli
##nlj
##nlk
##nll
##nlm
##nln
##nlo
##nlp
##nlq
##nlr
##nls
##nlt
##nlu
##nlv
##nlw
##nlx
##nly
##nlz
##nma
##nmb
##nmc
##nmd
##nme
##nmf
##nmg
##nmh
##nmi
##nmj
##nmk
##nml
##nmm
##nmn
##nmo
##nmp
##nmq
##nmr
##nms
##nmt
##nmu
##nmv
##nmw
##nmx
##nmy
##nmz
##nna
##nnb
##nnc
##nnd
##nne
##nnf
##nng
##nnh
##nni
##nnj
##nnk
##nnl
##nnm
##nnn
##nno
##nnp
##nnq
##nnr
##nns
##nnt
##nnu
##nnv
##nnw
##nnx
##nny
##nnz
##noa
##nob
##noc
##nod
##noe
##nof
##nog
##noh
##noi
##noj
##nok
##nol
##nom
##non
##noo
##nop
##noq
##nor
##nos
##not
##nou
##nov
##now
##nox
##noy
##noz
##npa
##npb
##npc
##npd
##npe
##npf
##npg
##nph
##npi
##npj
##npk
##npl
##npm
##npn
##npo
##npp
##npq
##npr
##nps
##npt
##npu
##npv
##npw
##npx
##npy
##npz
##nqa
##nqb
##nqc
##nqd
##nqe
##nqf
##nqg
##nqh
##nqi
##nqj
##nqk
##nql
##nqm
##nqn
##nqo
##nqp
##nqq
##nqr
##nqs
##nqt
##nqu
##nqv
##nqw
##nqx
##nqy
##nqz
##nra
##nrb
##nrc
##nrd
##nre
##nrf
##nrg
##nrh
##nri
##nrj
##nrk
##nrl
##nrm
##nrn
##nro
##nrp
##nrq
##nrr
##nrs
##nrt
##nru
##nrv
##nrw
##nrx
##nry
##nrz
##nsa
##nsb
##nsc
##nsd
##nse
##nsf
##nsg
##nsh
##nsi
##nsj
##nsk
##nsl
##nsm
##nsn
##nso
##nsp
##nsq
##nsr
##nss
##nst
##nsu
##nsv
##nsw
##nsx
##nsy
##nsz
##nta
##ntb
##ntc
##ntd
##nte
##ntf
##ntg
##nth
##nti
##ntj
##ntk
##ntl
##ntm
##ntn
##nto
##ntp
##ntq
##ntr
##nts
##ntt
##ntu
##ntv
##ntw
##ntx
##nty
##ntz
##nua
##nub
##nuc
##nud
##nue
##nuf
##nug
##nuh
##nui
##nuj
##nuk
##nul
##num
##nun
##nuo
##nup
##nuq
##nur
##nus
##nut
##nuu
##nuv
##nuw
##nux
##nuy
##nuz
##nva
##nvb
##nvc
##nvd
##nve
##nvf
##nvg
##nvh
##nvi
##nvj
##nvk
##nvl
##nvm
##nvn
##nvo
##nvp
##nvq
##nvr
##nvs
##nvt
##nvu
##nvv
##nvw
##nvx
##nvy
##nvz
##nwa
##nwb
##nwc
##nwd
##nwe
##nwf
##nwg
##nwh
##nwi
##nwj
##nwk
##nwl
##nwm
##nwn
##nwo
##nwp
##nwq
##nwr
##nws
##nwt
##nwu
##nwv
##nww
##nwx
##nwy
##nwz
##nxa
##nxb
##nxc
##nxd
##nxe
##nxf
##nxg
##nxh
##nxi
##nxj
##nxk
##nxl
##nxm
##nxn
##nxo
##nxp
##nxq
##nxr
##nxs
##nxt
##nxu
##nxv
##nxw
##nxx
##nxy
##nxz
##nya
##nyb
##nyc
##nyd
##nye
##nyf
##nyg
##nyh
##nyi
##nyj
##nyk
##nyl
##nym
##nyn
##nyo
##nyp
##nyq
##nyr
##nys
##nyt
##nyu
##nyv
##nyw
##nyx
##nyy
##nyz
##nza
##nzb
##nzc
##nzd
##nze
##nzf
##nzg
##nzh
##nzi
##nzj
##nzk
##nzl
##nzm
##nzn
##nzo
##nzp
##nzq
##nzr
##nzs
##nzt
##nzu
##nzv
##nzw
##nzx
##nzy
##nzz
##oaa
##oab
##oac
##oad
##oae
##oaf
##oag
##oah
##oai
##oaj
##oak
##oal
##oam
##oan
##oao
##oap
##oaq
##oar
##oas
##oat
##oau
##oav
##oaw
##oax
##oay
##oaz
##oba
##obb
##obc
##obd
##obe
##obf
##obg
##obh
##obi
##obj
##obk
##obl
##obm
##obn
##obo
##obp
##obq
##obr
##obs
##obt
##obu
##obv
##obw
##obx
##oby
##obz
##oca
##ocb
##occ
##ocd
##oce
##ocf
##ocg
##och
##oci
##ocj
##ock
##ocl
##ocm
##ocn
##oco
##ocp
##ocq
##ocr
##ocs
##oct
##ocu
##ocv
##ocw
##ocx
##ocy
##ocz
##oda
##odb
##odc
##odd
##ode
##odf
##odg
##odh
##odi
##odj
##odk
##odl
##odm
##odn
##odo
##odp
##odq
##odr
##ods
##odt
##odu
##odv
##odw
##odx
##ody
##odz
##oea
##oeb
##oec
##oed
##oee
##oef
##oeg
##oeh
##oei
##oej
##oek
##oel
##oem
##oen
##oeo
##oep
##oeq
##oer
##oes
##oet
##oeu
##oev
##oew
##oex
##oey
##oez
##ofa
##ofb
##ofc
##ofd
##ofe
##off
##ofg
##ofh
##ofi
##ofj
##ofk
##ofl
##ofm
##ofn
##ofo
##ofp
##ofq
##ofr
##ofs
##oft
##ofu
##ofv
##ofw
##ofx
##ofy
##ofz
##oga
##ogb
##ogc
##ogd
##oge
##ogf
##ogg
##ogh
##ogi
##ogj
##ogk
##ogl
##ogm
##ogn
##ogo
##ogp
##ogq
##ogr
##ogs
##ogt
##ogu
##ogv
##ogw
##ogx
##ogy
##ogz
##oha
##ohb
##ohc
##ohd
##ohe
##ohf
##ohg
##ohh
##ohi
##ohj
##ohk
##ohl
##ohm
##ohn
##oho
##ohp
##ohq
##ohr
##ohs
##oht
##ohu
##ohv
##ohw
##ohx
##ohy
##ohz
##oia
##oib
##oic
##oid
##oie
##oif
##oig
##oih
##oii
##oij
##oik
##oil
##oim
##oin
##oio
##oip
##oiq
##oir
##ois
##oit
##oiu
##oiv
##oiw
##oix
##oiy
##oiz
##oja
##ojb
##ojc
##ojd
##oje
##ojf
##ojg
##ojh
##oji
##ojj
##ojk
##ojl
##ojm
##ojn
##ojo
##ojp
##ojq
##ojr
##ojs
##ojt
##oju
##ojv
##ojw
##ojx
##ojy
##ojz
##oka
##okb
##okc
##okd
##oke
##okf
##okg
##okh
##oki
##okj
##okk
##okl
##okm
##okn
##oko
##okp
##okq
##okr
##oks
##okt
##oku
##okv
##okw
##okx
##oky
##okz
##ola
##olb
##olc
##old
##ole
##olf
##olg
##olh
##oli
##olj
##olk
##oll
##olm
##oln
##olo
##olp
##olq
##olr
##ols
##olt
##olu
##olv
##olw
##olx
##oly
##olz
##oma
##omb
##omc
##omd
##ome
##omf
##omg
##omh
##omi
##omj
##omk
##oml
##omm
##omn
##omo
##omp
##omq
##omr
##oms
##omt
##omu
##omv
##omw
##omx
##omy
##omz
##ona
##onb
##onc
##ond
##one
##onf
##ong
##onh
##oni
##onj
##onk
##onl
##onm
##onn
##ono
##onp
##onq
##onr
##ons
##ont
##onu
##onv
##onw
##onx
##ony
##onz
##ooa
##oob
##ooc
##ood
##ooe
##oof
##oog
##ooh
##ooi
##ooj
##ook
##ool
##oom
##oon
##ooo
##oop
##ooq
##oor
##oos
##oot
##oou
##oov
##oow
##oox
##ooy
##ooz
##opa
##opb
##opc
##opd
##ope
##opf
##opg
##oph
##opi
##opj
##opk
##opl
##opm
##opn
##opo
##opp
##opq
##opr
##ops
##opt
##opu
##opv
##opw
##opx
##opy
##opz
##oqa
##oqb
##oqc
##oqd
##oqe
##oqf
##oqg
##oqh
##oqi
##oqj
##oqk
##oql
##oqm
##oqn
##oqo
##oqp
##oqq
##oqr
##oqs
##oqt
##oqu
##oqv
##oqw
##oqx
##oqy
##oqz
##ora
##orb
##orc
##ord
##ore
##orf
##org
##orh
##ori
##orj
##ork
##orl
##orm
##orn
##oro
##orp
##orq
##orr
##ors
##ort
##oru
##orv
##orw
##orx
##ory
##orz
##osa
##osb
##osc
##osd
##ose
##osf
##osg
##osh
##osi
##osj
##osk
##osl
##osm
##osn
##oso
##osp
##osq
##osr
##oss
##ost
##osu
##osv
##osw
##osx
##osy
##osz
##ota
##otb
##otc
##otd
##ote
##otf
##otg
##oth
##oti
##otj
##otk
##otl
##otm
##otn
##oto
##otp
##otq
##otr
##ots
##ott
##otu
##otv
##otw
##otx
##oty
##otz
##oua
##oub
##ouc
##oud
##oue
##ouf
##oug
##ouh
##oui
##ouj
##ouk
##oul
##oum
##oun
##ouo
##oup
##ouq
##our
##out
##ouu
##ouv
##ouw
##oux
##ouy
##ouz
##ova
##ovb
##ovc
##ovd
##ove
##ovf
##ovg
##ovh
##ovi
##ovj
##ovk
##ovl
##ovm
##ovn
##ovo
##ovp
##ovq
##ovr
##ovs
##ovt
##ovu
##ovv
##ovw
##ovx
##ovy
##ovz
##owa
##owb
##owc
##owd
##owe
##owf
##owg
##owh
##owi
##owj
##owk
##owl
##owm
##own
##owo
##owp
##owq
##owr
##ows
##owt
##owu
##owv
##oww
##owx
##owy
##owz
##oxa
##oxb
##oxc
##oxd
##oxe
##oxf
##oxg
##oxh
##oxi
##oxj
##oxk
##oxl
##oxm
##oxn
##oxo
##oxp
##oxq
##oxr
##oxs
##oxt
##oxu
##oxv
##oxw
##oxx
##oxy
##oxz
##oya
##oyb
##oyc
##oyd
##oye
##oyf
##oyg
##oyh
##oyi
##oyj
##oyk
##oyl
##oym
##oyn
##oyo
##oyp
##oyq
##oyr
##oys
##oyt
##oyu
##oyv
##oyw
##oyx
##oyy
##oyz
##oza
##ozb
##ozc
##ozd
##oze
##ozf
##ozg
##ozh
##ozi
##ozj
##ozk
##ozl
##ozm
##ozn
##ozo
##ozp
##ozq
##ozr
##ozs
##ozt
##ozu
##ozv
##ozw
##ozx
##ozy
##ozz
##paa
##pab
##pac
##pad
##pae
##paf
##pag
##pah
##pai
##paj
##pak
##pal
##pam
##pan
##pao
##pap
##paq
##par
##pas
##pat
##pau
##pav
##paw
##pax
##pay
##paz
##pba
##pbb
##pbc
##pbd
##pbe
##pbf
##pbg
##pbh
##pbi
##pbj
##pbk
##pbl
##pbm
##pbn
##pbo
##pbp
##pbq
##pbr
##pbs
##pbt
##pbu
##pbv
##pbw
##pbx
##pby
##pbz
##pca
##pcb
##pcc
##pcd
##pce
##pcf
##pcg
##pch
##pci
##pcj
##pck
##pcl
##pcm
##pcn
##pco
##pcp
##pcq
##pcr
##pcs
##pct
##pcu
##pcv
##pcw
##pcx
##pcy
##pcz
##pda
##pdb
##pdc
##pdd
##pde
##pdf
##pdg
##pdh
##pdi
##pdj
##pdk
##pdl
##pdm
##pdn
##pdo
##pdp
##pdq
##pdr
##pds
##pdt
##pdu
##pdv
##pdw
##pdx
##pdy
##pdz
##pea
##peb
##pec
##ped
##pee
##pef
##peg
##peh
##pei
##pej
##pek
##pel
##pem
##pen
##peo
##pep
##peq
##per
##pes
##pet
##peu
##pev
##pew
##pex
##pey
##pez
##pfa
##pfb
##pfc
##pfd
##pfe
##pff
##pfg
##pfh
##pfi
##pfj
##pfk
##pfl
##pfm
##pfn
##pfo
##pfp
##pfq
##pfr
##pfs
##pft
##pfu
##pfv
##pfw
##pfx
##pfy
##pfz
##pga
##pgb
##pgc
##pgd
##pge
##pgf
##pgg
##pgh
##pgi
##pgj
##pgk
##pgl
##pgm
##pgn
##pgo
##pgp
##pgq
##pgr
##pgs
##pgt
##pgu
##pgv
##pgw
##pgx
##pgy
##pgz
##pha
##phb
##phc
##phd
##phe
##phf
##phg
##phh
##phi
##phj
##phk
##phl
##phm
##phn
##pho
##php
##phq
##phr
##phs
##pht
##phu
##phv
##phw
##phx
##phy
##phz
##pia
##pib
##pic
##pid
##pie
##pif
##pig
##pih
##pii
##pij
##pik
##pil
##pim
##pin
##pio
##pip
##piq
##pir
##pis
##pit
##piu
##piv
##piw
##pix
##piy
##piz
##pja
##pjb
##pjc
##pjd
##pje
##pjf
##pjg
##pjh
##pji
##pjj
##pjk
##pjl
##pjm
##pjn
##pjo
##pjp
##pjq
##pjr
##pjs
##pjt
##pju
##pjv
##pjw
##pjx
##pjy
##pjz
##pka
##pkb
##pkc
##pkd
##pke
##pkf
##pkg
##pkh
##pki
##pkj
##pkk
##pkl
##pkm
##pkn
##pko
##pkp
##pkq
##pkr
##pks
##pkt
##pku
##pkv
##pkw
##pkx
##pky
##pkz
##pla
##plb
##plc
##pld
##ple
##plf
##plg
##plh
##pli
##plj
##plk
##pll
##plm
##pln
##plo
##plp
##plq
##plr
##pls
##plt
##plu
##plv
##plw
##plx
##ply
##plz
##pma
##pmb
##pmc
##pmd
##pme
##pmf
##pmg
##pmh
##pmi
##pmj
##pmk
##pml
##pmm
##pmn
##pmo
##pmp
##pmq
##pmr
##pms
##pmt
##pmu
##pmv
##pmw
##pmx
##pmy
##pmz
##pna
##pnb
##pnc
##pnd
##pne
##pnf
##png
##pnh
##pni
##pnj
##pnk
##pnl
##pnm
##pnn
##pno
##pnp
##pnq
##pnr
##pns
##pnt
##pnu
##pnv
##pnw
##pnx
##pny
##pnz
##poa
##pob
##poc
##pod
##poe
##pof
##pog
##poh
##poi
##poj
##pok
##pol
##pom
##pon
##poo
##pop
##poq
##por
##pos
##pot
##pou
##pov
##pow
##pox
##poy
##poz
##ppa
##ppb
##ppc
##ppd
##ppe
##ppf
##ppg
##pph
##ppi
##ppj
##ppk
##ppl
##ppm
##ppn
##ppo
##ppp
##ppq
##ppr
##pps
##ppt
##ppu
##ppv
##ppw
##ppx
##ppy
##ppz
##pqa
##pqb
##pqc
##pqd
##pqe
##pqf
##pqg
##pqh
##pqi
##pqj
##pqk
##pql
##pqm
##pqn
##pqo
##pqp
##pqq
##pqr
##pqs
##pqt
##pqu
##pqv
##pqw
##pqx
##pqy
##pqz
##pra
##prb
##prc
##prd
##pre
##prf
##prg
##prh
##pri
##prj
##prk
##prl
##prm
##prn
##pro
##prp
##prq
##prr
##prs
##prt
##pru
##prv
##prw
##prx
##pry
##prz
##psa
##psb
##psc
##psd
##pse
##psf
##psg
##psh
##psi
##psj
##psk
##psl
##psm
##psn
##pso
##psp
##psq
##psr
##pss
##pst
##psu
##psv
##psw
##psx
##psy
##psz
##pta
##ptb
##ptc
##ptd
##pte
##ptf
##ptg
##pth
##pti
##ptj
##ptk
##ptl
##ptm
##ptn
##pto
##ptp
##ptq
##ptr
##pts
##ptt
##ptu
##ptv
##ptw
##ptx
##pty
##ptz
##pua
##pub
##puc
##pud
##pue
##puf
##pug
##puh
##pui
##puj
##puk
##pul
##pum
##pun
##puo
##pup
##puq
##pur
##pus
##put
##puu
##puv
##puw
##pux
##puy
##puz
##pva
##pvb
##pvc
##pvd
##pve
##pvf
##pvg
##pvh
##pvi
##pvj
##pvk
##pvl
##pvm
##pvn
##pvo
##pvp
##pvq
##pvr
##pvs
##pvt
##pvu
##pvv
##pvw
##pvx
##pvy
##pvz
##pwa
##pwb
##pwc
##pwd
##pwe
##pwf
##pwg
##pwh
##pwi
##pwj
##pwk
##pwl
##pwm
##pwn
##pwo
##pwp
##pwq
##pwr
##pws
##pwt
##pwu
##pwv
##pww
##pwx
##pwy
##pwz
##pxa
##pxb
##pxc
##pxd
##pxe
##pxf
##pxg
##pxh
##pxi
##pxj
##pxk
##pxl
##pxm
##pxn
##pxo
##pxp
##pxq
##pxr
##pxs
##pxt
##pxu
##pxv
##pxw
##pxx
##pxy
##pxz
##pya
##pyb
##pyc
##pyd
##pye
##pyf
##pyg
##pyh
##pyi
##pyj
##pyk
##pyl
##pym
##pyn
##pyo
##pyp
##pyq
##pyr
##pys
##pyt
##pyu
##pyv
##pyw
##pyx
##pyy
##pyz
##pza
##pzb
##pzc
##pzd
##pze
##pzf
##pzg
##pzh
##pzi
##pzj
##pzk
##pzl
##pzm
##pzn
##pzo
##pzp
##pzq
##pzr
##pzs
##pzt
##pzu
##pzv
##pzw
##pzx
##pzy
##pzz
##qaa
##qab
##qac
##qad
##qae
##qaf
##qag
##qah
##qai
##qaj
##qak
##qal
##qam
##qan
##qao
##qap
##qaq
##qar
##qas
##qat
##qau
##qav
##qaw
##qax
##qay
##qaz
##qba
##qbb
##qbc
##qbd
##qbe
##qbf
##qbg
##qbh
##qbi
##qbj
##qbk
##qbl
##qbm
##qbn
##qbo
##qbp
##qbq
##qbr
##qbs
##qbt
##qbu
##qbv
##qbw
##qbx
##qby
##qbz
##qca
##qcb
##qcc
##qcd
##qce
##qcf
##qcg
##qch
##qci
##qcj
##qck
##qcl
##qcm
##qcn
##qco
##qcp
##qcq
##qcr
##qcs
##qct
##qcu
##qcv
##qcw
##qcx
##qcy
##qcz
##qda
##qdb
##qdc
##qdd
##qde
##qdf
##qdg
##qdh
##qdi
##qdj
##qdk
##qdl
##qdm
##qdn
##qdo
##qdp
##qdq
##qdr
##qds
##qdt
##qdu
##qdv
##qdw
##qdx
##qdy
##qdz
##qea
##qeb
##qec
##qed
##qee
##qef
##qeg
##qeh
##qei
##qej
##qek
##qel
##qem
##qen
##qeo
##qep
##qeq
##qer
##qes
##qet
##qeu
##qev
##qew
##qex
##qey
##qez
##qfa
##qfb
##qfc
##qfd
##qfe
##qff
##qfg
##qfh
##qfi
##qfj
##qfk
##qfl
##qfm
##qfn
##qfo
##qfp
##qfq
##qfr
##qfs
##qft
##qfu
##qfv
##qfw
##qfx
##qfy
##qfz
##qga
##qgb
##qgc
##qgd
##qge
##qgf
##qgg
##qgh
##qgi
##qgj
##qgk
##qgl
##qgm
##qgn
##qgo
##qgp
##qgq
##qgr
##qgs
##qgt
##qgu
##qgv
##qgw
##qgx
##qgy
##qgz
##qha
##qhb
##qhc
##qhd
##qhe
##qhf
##qhg
##qhh
##qhi
##qhj
##qhk
##qhl
##qhm
##qhn
##qho
##qhp
##qhq
##qhr
##qhs
##qht
##qhu
##qhv
##qhw
##qhx
##qhy
##qhz
##qia
##qib
##qic
##qid
##qie
##qif
##qig
##qih
##qii
##qij
##qik
##qil
##qim
##qin
##qio
##qip
##qiq
##qir
##qis
##qit
##qiu
##qiv
##qiw
##qix
##qiy
##qiz
##qja
##qjb
##qjc
##qjd
##qje
##qjf
##qjg
##qjh
##qji
##qjj
##qjk
##qjl
##qjm
##qjn
##qjo
##qjp
##qjq
##qjr
##qjs
##qjt
##qju
##qjv
##qjw
##qjx
##qjy
##qjz
##qka
##qkb
##qkc
##qkd
##qke
##qkf
##qkg
##qkh
##qki
##qkj
##qkk
##qkl
##qkm
##qkn
##qko
##qkp
##qkq
##qkr
##qks
##qkt
##qku
##qkv
##qkw
##qkx
##qky
##qkz
##qla
##qlb
##qlc
##qld
##qle
##qlf
##qlg
##qlh
##qli
##qlj
##qlk
##qll
##qlm
##qln
##qlo
##qlp
##qlq
##qlr
##qls
##qlt
##qlu
##qlv
##qlw
##qlx
##qly
##qlz
##qma
##qmb
##qmc
##qmd
##qme
##qmf
##qmg
##qmh
##qmi
##qmj
##qmk
##qml
##qmm
##qmn
##qmo
##qmp
##qmq
##qmr
##qms
##qmt
##qmu
##qmv
##qmw
##qmx
##qmy
##qmz
##qna
##qnb
##qnc
##qnd
##qne
##qnf
##qng
##qnh
##qni
##qnj
##qnk
##qnl
##qnm
##qnn
##qno
##qnp
##qnq
##qnr
##qns
##qnt
##qnu
##qnv
##qnw
##qnx
##qny
##qnz
##qoa
##qob
##qoc
##qod
##qoe
##qof
##qog
##qoh
##qoi
##qoj
##qok
##qol
##qom
##qon
##qoo
##qop
##qoq
##qor
##qos
##qot
##qou
##qov
##qow
##qox
##qoy
##qoz
##qpa
##qpb
##qpc
##qpd
##qpe
##qpf
##qpg
##qph
##qpi
##qpj
##qpk
##qpl
##qpm
##qpn
##qpo
##qpp
##qpq
##qpr
##qps
##qpt
##qpu
##qpv
##qpw
##qpx
##qpy
##qpz
##qqa
##qqb
##qqc
##qqd
##qqe
##qqf
##qqg
##qqh
##qqi
##qqj
##qqk
##qql
##qqm
##qqn
##qqo
##qqp
##qqq
##qqr
##qqs
##qqt
##qqu
##qqv
##qqw
##qqx
##qqy
##qqz
##qra
##qrb
##qrc
##qrd
##qre
##qrf
##qrg
##qrh
##qri
##qrj
##qrk
##qrl
##qrm
##qrn
##qro
##qrp
##qrq
##qrr
##qrs
##qrt
##qru
##qrv
##qrw
##qrx
##qry
##qrz
##qsa
##qsb
##qsc
##qsd
##qse
##qsf
##qsg
##qsh
##qsi
##qsj
##qsk
##qsl
##qsm
##qsn
##qso
##qsp
##qsq
##qsr
##qss
##qst
##qsu
##qsv
##qsw
##qsx
##qsy
##qsz
##qta
##qtb
##qtc
##qtd
##qte
##qtf
##qtg
##qth
##qti
##qtj
##qtk
##qtl
##qtm
##qtn
##qto
##qtp
##qtq
##qtr
##qts
##qtt
##qtu
##qtv
##qtw
##qtx
##qty
##qtz
##qua
##qub
##quc
##qud
##que
##quf
##qug
##quh
##qui
##quj
##quk
##qul
##qum
##qun
##quo
##qup
##quq
##qur
##qus
##qut
##quu
##quv
##quw
##qux
##quy
##quz
##qva
##qvb
##qvc
##qvd
##qve
##qvf
##qvg
##qvh
##qvi
##qvj
##qvk
##qvl
##qvm
##qvn
##qvo
##qvp
##qvq
##qvr
##qvs
##qvt
##qvu
##qvv
##qvw
##qvx
##qvy
##qvz
##qwa
##qwb
##qwc
##qwd
##qwe
##qwf
##qwg
##qwh
##qwi
##qwj
##qwk
##qwl
##qwm
##qwn
##qwo
##qwp
##qwq
##qwr
##qws
##qwt
##qwu
##qwv
##qww
##qwx
##qwy
##qwz
##qxa
##qxb
##qxc
##qxd
##qxe
##qxf
##qxg
##qxh
##qxi
##qxj
##qxk
##qxl
##qxm
##qxn
##qxo
##qxp
##qxq
##qxr
##qxs
##qxt
##qxu
##qxv
##qxw
##qxx
##qxy
##qxz
##qya
##qyb
##qyc
##qyd
##qye
##qyf
##qyg
##qyh
##qyi
##qyj
##qyk
##qyl
##qym
##qyn
##qyo
##qyp
##qyq
##qyr
##qys
##qyt
##qyu
##qyv
##qyw
##qyx
##qyy
##qyz
##qza
##qzb
##qzc
##qzd
##qze
##qzf
##qzg
##qzh
##qzi
##qzj
##qzk
##qzl
##qzm
##qzn
##qzo
##qzp
##qzq
##qzr
##qzs
##qzt
##qzu
##qzv
##qzw
##qzx
##qzy
##qzz
##raa
##rab
##rac
##rad
##rae
##raf
##rag
##rah
##rai
##raj
##rak
##ral
##ram
##ran
##rao
##rap
##raq
##rar
##ras
##rat
##rau
##rav
##raw
##rax
##ray
##raz
##rba
##rbb
##rbc
##rbd
##rbe
##rbf
##rbg
##rbh
##rbi
##rbj
##rbk
##rbl
##rbm
##rbn
##rbo
##rbp
##rbq
##rbr
##rbs
##rbt
##rbu
##rbv
##rbw
##rbx
##rby
##rbz
##rca
##rcb
##rcc
##rcd
##rce
##rcf
##rcg
##rch
##rci
##rcj
##rck
##rcl
##rcm
##rcn
##rco
##rcp
##rcq
##rcr
##rcs
##rct
##rcu
##rcv
##rcw
##rcx
##rcy
##rcz
##rda
##rdb
##rdc
##rdd
##rde
##rdf
##rdg
##rdh
##rdi
##rdj
##rdk
##rdl
##rdm
##rdn
##rdo
##rdp
##rdq
##rdr
##rds
##rdt
##rdu
##rdv
##rdw
##rdx
##rdy
##rdz
##rea
##reb
##rec
##red
##ree
##ref
##reg
##reh
##rei
##rej
##rek
##rel
##rem
##ren
##reo
##rep
##req
##rer
##res
##ret
##reu
##rev
##rew
##rex
##rey
##rez
##rfa
##rfb
##rfc
##rfd
##rfe
##rff
##rfg
##rfh
##rfi
##rfj
##rfk
##rfl
##rfm
##rfn
##rfo
##rfp
##rfq
##rfr
##rfs
##rft
##rfu
##rfv
##rfw
##rfx
##rfy
##rfz
##rga
##rgb
##rgc
##rgd
##rge
##rgf
##rgg
##rgh
##rgi
##rgj
##rgk
##rgl
##rgm
##rgn
##rgo
##rgp
##rgq
##rgr
##rgs
##rgt
##rgu
##rgv
##rgw
##rgx
##rgy
##rgz
##rha
##rhb
##rhc
##rhd
##rhe
##rhf
##rhg
##rhh
##rhi
##rhj
##rhk
##rhl
##rhm
##rhn
##rho
##rhp
##rhq
##rhr
##rhs
##rht
##rhu
##rhv
##rhw
##rhx
##rhy
##rhz
##ria
##rib
##ric
##rid
##rie
##rif
##rig
##rih
##rii
##rij
##rik
##ril
##rim
##rin
##rio
##rip
##riq
##rir
##ris
##rit
##riu
##riv
##riw
##rix
##riy
##riz
##rja
##rjb
##rjc
##rjd
##rje
##rjf
##rjg
##rjh
##rji
##rjj
##rjk
##rjl
##rjm
##rjn
##rjo
##rjp
##rjq
##rjr
##rjs
##rjt
##rju
##rjv
##rjw
##rjx
##rjy
##rjz
##rka
##rkb
##rkc
##rkd
##rke
##rkf
##rkg
##rkh
##rki
##rkj
##rkk
##rkl
##rkm
##rkn
##rko
##rkp
##rkq
##rkr
##rks
##rkt
##rku
##rkv
##rkw
##rkx
##rky
##rkz
##rla
##rlb
##rlc
##rld
##rle
##rlf
##rlg
##rlh
##rli
##rlj
##rlk
##rll
##rlm
##rln
##rlo
##rlp
##rlq
##rlr
##rls
##rlt
##rlu
##rlv
##rlw
##rlx
##rly
##rlz
##rma
##rmb
##rmc
##rmd
##rme
##rmf
##rmg
##rmh
##rmi
##rmj
##rmk
##rml
##rmm
##rmn
##rmo
##rmp
##rmq
##rmr
##rms
##rmt
##rmu
##rmv
##rmw
##rmx
##rmy
##rmz
##rna
##rnb
##rnc
##rnd
##rne
##rnf
##rng
##rnh
##rni
##rnj
##rnk
##rnl
##rnm
##rnn
##rno
##rnp
##rnq
##rnr
##rns
##rnt
##rnu
##rnv
##rnw
##rnx
##rny
##rnz
##roa
##rob
##roc
##rod
##roe
##rof
##rog
##roh
##roi
##roj
##rok
##rol
##rom
##ron
##roo
##rop
##roq
##ror
##ros
##rot
##rou
##rov
##row
##rox
##roy
##roz
##rpa
##rpb
##rpc
##rpd
##rpe
##rpf
##rpg
##rph
##rpi
##rpj
##rpk
##rpl
##rpm
##rpn
##rpo
##rpp
##rpq
##rpr
##rps
##rpt
##rpu
##rpv
##rpw
##rpx
##rpy
##rpz
##rqa
##rqb
##rqc
##rqd
##rqe
##rqf
##rqg
##rqh
##rqi
##rqj
##rqk
##rql
##rqm
##rqn
##rqo
##rqp
##rqq
##rqr
##rqs
##rqt
##rqu
##rqv
##rqw
##rqx
##rqy
##rqz
##rra
##rrb
##rrc
##rrd
##rre
##rrf
##rrg
##rrh
##rri
##rrj
##rrk
##rrl
##rrm
##rrn
##rro
##rrp
##rrq
##rrr
##rrs
##rrt
##rru
##rrv
##rrw
##rrx
##rry
##rrz
##rsa
##rsb
##rsc
##rsd
##rse
##rsf
##rsg
##rsh
##rsi
##rsj
##rsk
##rsl
##rsm
##rsn
##rso
##rsp
##rsq
##rsr
##rss
##rst
##rsu
##rsv
##rsw
##rsx
##rsy
##rsz
##rta
##rtb
##rtc
##rtd
##rte
##rtf
##rtg
##rth
##rti
##rtj
##rtk
##rtl
##rtm
##rtn
##rto
##rtp
##rtq
##rtr
##rts
##rtt
##rtu
##rtv
##rtw
##rtx
##rty
##rtz
##rua
##rub
##ruc
##rud
##rue
##ruf
##rug
##ruh
##rui
##ruj
##ruk
##rul
##rum
##run
##ruo
##rup
##ruq
##rur
##rus
##rut
##ruu
##ruv
##ruw
##rux
##ruy
##ruz
##rva
##rvb
##rvc
##rvd
##rve
##rvf
##rvg
##rvh
##rvi
##rvj
##rvk
##rvl
##rvm
##rvn
##rvo
##rvp
##rvq
##rvr
##rvs
##rvt
##rvu
##rvv
##rvw
##rvx
##rvy
##rvz
##rwa
##rwb
##rwc
##rwd
##rwe
##rwf
##rwg
##rwh
##rwi
##rwj
##rwk
##rwl
##rwm
##rwn
##rwo
##rwp
##rwq
##rwr
##rws
##rwt
##rwu
##rwv
##rww
##rwx
##rwy
##rwz
##rxa
##rxb
##rxc
##rxd
##rxe
##rxf
##rxg
##rxh
##rxi
##rxj
##rxk
##rxl
##rxm
##rxn
##rxo
##rxp
##rxq
##rxr
##rxs
##rxt
##rxu
##rxv
##rxw
##rxx
##rxy
##rxz
##rya
##ryb
##ryc
##ryd
##rye
##ryf
##ryg
##ryh
##ryi
##ryj
##ryk
##ryl
##rym
##ryn
##ryo
##ryp
##ryq
##ryr
##rys
##ryt
##ryu
##ryv
##ryw
##ryx
##ryy
##ryz
##rza
##rzb
##rzc
##rzd
##rze
##rzf
##rzg
##rzh
##rzi
##rzj
##rzk
##rzl
##rzm
##rzn
##rzo
##rzp
##rzq
##rzr
##rzs
##rzt
##rzu
##rzv
##rzw
##rzx
##rzy
##rzz
##saa
##sab
##sac
##sad
##sae
##saf
##sag
##sah
##sai
##saj
##sak
##sal
##sam
##san
##sao
##sap
##saq
##sar
##sas
##sat
##sau
##sav
##saw
##sax
##say
##saz
##sba
##sbb
##sbc
##sbd
##sbe
##sbf
##sbg
##sbh
##sbi
##sbj
##sbk
##sbl
##sbm
##sbn
##sbo
##sbp
##sbq
##sbr
##sbs
##sbt
##sbu
##sbv
##sbw
##sbx
##sby
##sbz
##sca
##scb
##scc
##scd
##sce
##scf
##scg
##sch
##sci
##scj
##sck
##scl
##scm
##scn
##sco
##scp
##scq
##scr
##scs
##sct
##scu
##scv
##scw
##scx
##scy
##scz
##sda
##sdb
##sdc
##sdd
##sde
##sdf
##sdg
##sdh
##sdi
##sdj
##sdk
##sdl
##sdm
##sdn
##sdo
##sdp
##sdq
##sdr
##sds
##sdt
##sdu
##sdv
##sdw
##sdx
##sdy
##sdz
##sea
##seb
##sec
##sed
##see
##sef
##seg
##seh
##sei
##sej
##sek
##sel
##sem
##sen
##seo
##sep
##seq
##ser
##ses
##set
##seu
##sev
##sew
##sex
##sey
##sez
##sfa
##sfb
##sfc
##sfd
##sfe
##sff
##sfg
##sfh
##sfi
##sfj
##sfk
##sfl
##sfm
##sfn
##sfo
##sfp
##sfq
##sfr
##sfs
##sft
##sfu
##sfv
##sfw
##sfx
##sfy
##sfz
##sga
##sgb
##sgc
##sgd
##sge
##sgf
##sgg
##sgh
##sgi
##sgj
##sgk
##sgl
##sgm
##sgn
##sgo
##sgp
##sgq
##sgr
##sgs
##sgt
##sgu
##sgv
##sgw
##sgx
##sgy
##sgz
##sha
##shb
##shc
##shd
##she
##shf
##shg
##shh
##shi
##shj
##shk
##shl
##shm
##shn
##sho
##shp
##shq
##shr
##shs
##sht
##shu
##shv
##shw
##shx
##shy
##shz
##sia
##sib
##sic
##sid
##sie
##sif
##sig
##sih
##sii
##sij
##sik
##sil
##sim
##sin
##sio
##sip
##siq
##sir
##sis
##sit
##siu
##siv
##siw
##six
##siy
##siz
##sja
##sjb
##sjc
##sjd
##sje
##sjf
##sjg
##sjh
##sji
##sjj
##sjk
##sjl
##sjm
##sjn
##sjo
##sjp
##sjq
##sjr
##sjs
##sjt
##sju
##sjv
##sjw
##sjx
##sjy
##sjz
##ska
##skb
##skc
##skd
##ske
##skf
##skg
##skh
##ski
##skj
##skk
##skl
##skm
##skn
##sko
##skp
##skq
##skr
##sks
##skt
##sku
##skv
##skw
##skx
##sky
##skz
##sla
##slb
##slc
##sld
##sle
##slf
##slg
##slh
##sli
##slj
##slk
##sll
##slm
##sln
##slo
##slp
##slq
##slr
##sls
##slt
##slu
##slv
##slw
##slx
##sly
##slz
##sma
##smb
##smc
##smd
##sme
##smf
##smg
##smh
##smi
##smj
##smk
##sml
##smm
##smn
##smo
##smp
##smq
##smr
##sms
##smt
##smu
##smv
##smw
##smx
##smy
##smz
##sna
##snb
##snc
##snd
##sne
##snf
##sng
##snh
##sni
##snj
##snk
##snl
##snm
##snn
##sno
##snp
##snq
##snr
##sns
##snt
##snu
##snv
##snw
##snx
##sny
##snz
##soa
##sob
##soc
##sod
##soe
##sof
##sog
##soh
##soi
##soj
##sok
##sol
##som
##son
##soo
##sop
##soq
##sor
##sos
##sot
##sou
##sov
##sow
##sox
##soy
##soz
##spa
##spb
##spc
##spd
##spe
##spf
##spg
##sph
##spi
##spj
##spk
##spl
##spm
##spn
##spo
##spp
##spq
##spr
##sps
##spt
##spu
##spv
##spw
##spx
##spy
##spz
##sqa
##sqb
##sqc
##sqd
##sqe
##sqf
##sqg
##sqh
##sqi
##sqj
##sqk
##sql
##sqm
##sqn
##sqo
##sqp
##sqq
##sqr
##sqs
##sqt
##squ
##sqv
##sqw
##sqx
##sqy
##sqz
##sra
##srb
##src
##srd
##sre
##srf
##srg
##srh
##sri
##srj
##srk
##srl
##srm
##srn
##sro
##srp
##srq
##srr
##srs
##srt
##sru
##srv
##srw
##srx
##sry
##srz
##ssa
##ssb
##ssc
##ssd
##sse
##ssf
##ssg
##ssh
##ssi
##ssj
##ssk
##ssl
##ssm
##ssn
##sso
##ssp
##ssq
##ssr
##sss
##sst
##ssu
##ssv
##ssw
##ssx
##ssy
##ssz
##sta
##stb
##stc
##std
##ste
##stf
##stg
##sth
##sti
##stj
##stk
##stl
##stm
##stn
##sto
##stp
##stq
##str
##sts
##stt
##stu
##stv
##stw
##stx
##sty
##stz
##sua
##sub
##suc
##sud
##sue
##suf
##sug
##suh
##sui
##suj
##suk
##sul
##sum
##sun
##suo
##sup
##suq
##sur
##sus
##sut
##suu
##suv
##suw
##sux
##suy
##suz
##sva
##svb
##svc
##svd
##sve
##svf
##svg
##svh
##svi
##svj
##svk
##svl
##svm
##svn
##svo
##svp
##svq
##svr
##svs
##svt
##svu
##svv
##svw
##svx
##svy
##svz
##swa
##swb
##swc
##swd
##swe
##swf
##swg
##swh
##swi
##swj
##swk
##swl
##swm
##swn
##swo
##swp
##swq
##swr
##sws
##swt
##swu
##swv
##sww
##swx
##swy
##swz
##sxa
##sxb
##sxc
##sxd
##sxe
##sxf
##sxg
##sxh
##sxi
##sxj
##sxk
##sxl
##sxm
##sxn
##sxo
##sxp
##sxq
##sxr
##sxs
##sxt
##sxu
##sxv
##sxw
##sxx
##sxy
##sxz
##sya
##syb
##syc
##syd
##sye
##syf
##syg
##syh
##syi
##syj
##syk
##syl
##sym
##syn
##syo
##syp
##syq
##syr
##sys
##syt
##syu
##syv
##syw
##syx
##syy
##syz
##sza
##szb
##szc
##szd
##sze
##szf
##szg
##szh
##szi
##szj
##szk
##szl
##szm
##szn
##szo
##szp
##szq
##szr
##szs
##szt
##szu
##szv
##szw
##szx
##szy
##szz
##taa
##tab
##tac
##tad
##tae
##taf
##tag
##tah
##tai
##taj
##tak
##tal
##tam
##tan
##tao
##tap
##taq
##tar
##tas
##tat
##tau
##tav
##taw
##tax
##tay
##taz
##tba
##tbb
##tbc
##tbd
##tbe
##tbf
##tbg
##tbh
##tbi
##tbj
##tbk
##tbl
##tbm
##tbn
##tbo
##tbp
##tbq
##tbr
##tbs
##tbt
##tbu
##tbv
##tbw
##tbx
##tby
##tbz
##tca
##tcb
##tcc
##tcd
##tce
##tcf
##tcg
##tch
##tci
##tcj
##tck
##tcl
##tcm
##tcn
##tco
##tcp
##tcq
##tcr
##tcs
##tct
##tcu
##tcv
##tcw
##tcx
##tcy
##tcz
##tda
##tdb
##tdc
##tdd
##tde
##tdf
##tdg
##tdh
##tdi
##tdj
##tdk
##tdl
##tdm
##tdn
##tdo
##tdp
##tdq
##tdr
##tds
##tdt
##tdu
##tdv
##tdw
##tdx
##tdy
##tdz
##tea
##teb
##tec
##ted
##tee
##tef
##teg
##teh
##tei
##tej
##tek
##tel
##tem
##ten
##teo
##tep
##teq
##ter
##tes
##tet
##teu
##tev
##tew
##tex
##tey
##tez
##tfa
##tfb
##tfc
##tfd
##tfe
##tff
##tfg
##tfh
##tfi
##tfj
##tfk
##tfl
##tfm
##tfn
##tfo
##tfp
##tfq
##tfr
##tfs
##tft
##tfu
##tfv
##tfw
##tfx
##tfy
##tfz
##tga
##tgb
##tgc
##tgd
##tge
##tgf
##tgg
##tgh
##tgi
##tgj
##tgk
##tgl
##tgm
##tgn
##tgo
##tgp
##tgq
##tgr
##tgs
##tgt
##tgu
##tgv
##tgw
##tgx
##tgy
##tgz
##tha
##thb
##thc
##thd
##the
##thf
##thg
##thh
##thi
##thj
##thk
##thl
##thm
##thn
##tho
##thp
##thq
##thr
##ths
##tht
##thu
##thv
##thw
##thx
##thy
##thz
##tia
##tib
##tic
##tid
##tie
##tif
##tig
##tih
##tii
##tij
##tik
##til
##tim
##tin
##tio
##tip
##tiq
##tir
##tis
##tit
##tiu
##tiv
##tiw
##tix
##tiy
##tiz
##tja
##tjb
##tjc
##tjd
##tje
##tjf
##tjg
##tjh
##tji
##tjj
##tjk
##tjl
##tjm
##tjn
##tjo
##tjp
##tjq
##tjr
##tjs
##tjt
##tju
##tjv
##tjw
##tjx
##tjy
##tjz
##tka
##tkb
##tkc
##tkd
##tke
##tkf
##tkg
##tkh
##tki
##tkj
##tkk
##tkl
##tkm
##tkn
##tko
##tkp
##tkq
##tkr
##tks
##tkt
##tku
##tkv
##tkw
##tkx
##tky
##tkz
##tla
##tlb
##tlc
##tld
##tle
##tlf
##tlg
##tlh
##tli
##tlj
##tlk
##tll
##tlm
##tln
##tlo
##tlp
##tlq
##tlr
##tls
##tlt
##tlu
##tlv
##tlw
##tlx
##tly
##tlz
##tma
##tmb
##tmc
##tmd
##tme
##tmf
##tmg
##tmh
##tmi
##tmj
##tmk
##tml
##tmm
##tmn
##tmo
##tmp
##tmq
##tmr
##tms
##tmt
##tmu
##tmv
##tmw
##tmx
##tmy
##tmz
##tna
##tnb
##tnc
##tnd
##tne
##tnf
##tng
##tnh
##tni
##tnj
##tnk
##tnl
##tnm
##tnn
##tno
##tnp
##tnq
##tnr
##tns
##tnt
##tnu
##tnv
##tnw
##tnx
##tny
##tnz
##toa
##tob
##toc
##tod
##toe
##tof
##tog
##toh
##toi
##toj
##tok
##tol
##tom
##ton
##too
##top
##toq
##tor
##tos
##tot
##tou
##tov
##tow
##tox
##toy
##toz
##tpa
##tpb
##tpc
##tpd
##tpe
##tpf
##tpg
##tph
##tpi
##tpj
##tpk
##tpl
##tpm
##tpn
##tpo
##tpp
##tpq
##tpr
##tps
##tpt
##tpu
##tpv
##tpw
##tpx
##tpy
##tpz
##tqa
##tqb
##tqc
##tqd
##tqe
##tqf
##tqg
##tqh
##tqi
##tqj
##tqk
##tql
##tqm
##tqn
##tqo
##tqp
##tqq
##tqr
##tqs
##tqt
##tqu
##tqv
##tqw
##tqx
##tqy
##tqz
##tra
##trb
##trc
##trd
##tre
##trf
##trg
##trh
##tri
##trj
##trk
##trl
##trm
##trn
##tro
##trp
##trq
##trr
##trs
##trt
##tru
##trv
##trw
##trx
##try
##trz
##tsa
##tsb
##tsc
##tsd
##tse
##tsf
##tsg
##tsh
##tsi
##tsj
##tsk
##tsl
##tsm
##tsn
##tso
##tsp
##tsq
##tsr
##tss
##tst
##tsu
##tsv
##tsw
##tsx
##tsy
##tsz
##tta
##ttb
##ttc
##ttd
##tte
##ttf
##ttg
##tth
##tti
##ttj
##ttk
##ttl
##ttm
##ttn
##tto
##ttp
##ttq
##ttr
##tts
##ttt
##ttu
##ttv
##ttw
##ttx
##tty
##ttz
##tua
##tub
##tuc
##tud
##tue
##tuf
##tug
##tuh
##tui
##tuj
##tuk
##tul
##tum
##tun
##tuo
##tup
##tuq
##tur
##tus
##tut
##tuu
##tuv
##tuw
##tux
##tuy
##tuz
##tva
##tvb
##tvc
##tvd
##tve
##tvf
##tvg
##tvh
##tvi
##tvj
##tvk
##tvl
##tvm
##tvn
##tvo
##tvp
##tvq
##tvr
##tvs
##tvt
##tvu
##tvv
##tvw
##tvx
##tvy
##tvz
##twa
##twb
##twc
##twd
##twe
##twf
##twg
##twh
##twi
##twj
##twk
##twl
##twm
##twn
##two
##twp
##twq
##twr
##tws
##twt
##twu
##twv
##tww
##twx
##twy
##twz
##txa
##txb
##txc
##txd
##txe
##txf
##txg
##txh
##txi
##txj
##txk
##txl
##txm
##txn
##txo
##txp
##txq
##txr
##txs
##txt
##txu
##txv
##txw
##txx
##txy
##txz
##tya
##tyb
##tyc
##tyd
##tye
##tyf
##tyg
##tyh
##tyi
##tyj
##tyk
##tyl
##tym
##tyn
##tyo
##typ
##tyq
##tyr
##tys
##tyt
##tyu
##tyv
##tyw
##tyx
##tyy
##tyz
##tza
##tzb
##tzc
##tzd
##tze
##tzf
##tzg
##tzh
##tzi
##tzj
##tzk
##tzl
##tzm
##tzn
##tzo
##tzp
##tzq
##tzr
##tzs
##tzt
##tzu
##tzv
##tzw
##tzx
##tzy
##tzz
##uaa
##uab
##uac
##uad
##uae
##uaf
##uag
##uah
##uai
##uaj
##uak
##ual
##uam
##uan
##uao
##uap
##uaq
##uar
##uas
##uat
##uau
##uav
##uaw
##uax
##uay
##uaz
##uba
##ubb
##ubc
##ubd
##ube
##ubf
##ubg
##ubh
##ubi
##ubj
##ubk
##ubl
##ubm
##ubn
##ubo
##ubp
##ubq
##ubr
##ubs
##ubt
##ubu
##ubv
##ubw
##ubx
##uby
##ubz
##uca
##ucb
##ucc
##ucd
##uce
##ucf
##ucg
##uch
##uci
##ucj
##uck
##ucl
##ucm
##ucn
##uco
##ucp
##ucq
##ucr
##ucs
##uct
##ucu
##ucv
##ucw
##ucx
##ucy
##ucz
##uda
##udb
##udc
##udd
##ude
##udf
##udg
##udh
##udi
##udj
##udk
##udl
##udm
##udn
##udo
##udp
##udq
##udr
##uds
##udt
##udu
##udv
##udw
##udx
##udy
##udz
##uea
##ueb
##uec
##ued
##uee
##uef
##ueg
##ueh
##uei
##uej
##uek
##uel
##uem
##uen
##ueo
##uep
##ueq
##uer
##ues
##uet
##ueu
##uev
##uew
##uex
##uey
##uez
##ufa
##ufb
##ufc
##ufd
##ufe
##uff
##ufg
##ufh
##ufi
##ufj
##ufk
##ufl
##ufm
##ufn
##ufo
##ufp
##ufq
##ufr
##ufs
##uft
##ufu
##ufv
##ufw
##ufx
##ufy
##ufz
##uga
##ugb
##ugc
##ugd
##uge
##ugf
##ugg
##ugh
##ugi
##ugj
##ugk
##ugl
##ugm
##ugn
##ugo
##ugp
##ugq
##ugr
##ugs
##ugt
##ugu
##ugv
##ugw
##ugx
##ugy
##ugz
##uha
##uhb
##uhc
##uhd
##uhe
##uhf
##uhg
##uhh
##uhi
##uhj
##uhk
##uhl
##uhm
##uhn
##uho
##uhp
##uhq
##uhr
##uhs
##uht
##uhu
##uhv
##uhw
##uhx
##uhy
##uhz
##uia
##uib
##uic
##uid
##uie
##uif
##uig
##uih
##uii
##uij
##uik
##uil
##uim
##uin
##uio
##uip
##uiq
##uir
##uis
##uit
##uiu
##uiv
##uiw
##uix
##uiy
##uiz
##uja
##ujb
##ujc
##ujd
##uje
##ujf
##ujg
##ujh
##uji
##ujj
##ujk
##ujl
##ujm
##ujn
##ujo
##ujp
##ujq
##ujr
##ujs
##ujt
##uju
##ujv
##ujw
##ujx
##ujy
##ujz
##uka
##ukb
##ukc
##ukd
##uke
##ukf
##ukg
##ukh
##uki
##ukj
##ukk
##ukl
##ukm
##ukn
##uko
##ukp
##ukq
##ukr
##uks
##ukt
##uku
##ukv
##ukw
##ukx
##uky
##ukz
##ula
##ulb
##ulc
##uld
##ule
##ulf
##ulg
##ulh
##uli
##ulj
##ulk
##ull
##ulm
##uln
##ulo
##ulp
##ulq
##ulr
##uls
##ult
##ulu
##ulv
##ulw
##ulx
##uly
##ulz
##uma
##umb
##umc
##umd
##ume
##umf
##umg
##umh
##umi
##umj
##umk
##uml
##umm
##umn
##umo
##ump
##umq
##umr
##ums
##umt
##umu
##umv
##umw
##umx
##umy
##umz
##una
##unb
##unc
##und
##une
##unf
##ung
##unh
##uni
##unj
##unk
##unl
##unm
##unn
##uno
##unp
##unq
##unr
##uns
##unt
##unu
##unv
##unw
##unx
##uny
##unz
##uoa
##uob
##uoc
##uod
##uoe
##uof
##uog
##uoh
##uoi
##uoj
##uok
##uol
##uom
##uon
##uoo
##uop
##uoq
##uor
##uos
##uot
##uou
##uov
##uow
##uox
##uoy
##uoz
##upa
##upb
##upc
##upd
##upe
##upf
##upg
##uph
##upi
##upj
##upk
##upl
##upm
##upn
##upo
##upp
##upq
##upr
##ups
##upt
##upu
##upv
##upw
##upx
##upy
##upz
##uqa
##uqb
##uqc
##uqd
##uqe
##uqf
##uqg
##uqh
##uqi
##uqj
##uqk
##uql
##uqm
##uqn
##uqo
##uqp
##uqq
##uqr
##uqs
##uqt
##uqu
##uqv
##uqw
##uqx
##uqy
##uqz
##ura
##urb
##urc
##urd
##ure
##urf
##urg
##urh
##uri
##urj
##urk
##url
##urm
##urn
##uro
##urp
##urq
##urr
##urs
##urt
##uru
##urv
##urw
##urx
##ury
##urz
##usa
##usb
##usc
##usd
##use
##usf
##usg
##ush
##usi
##usj
##usk
##usl
##usm
##usn
##uso
##usp
##usq
##usr
##uss
##ust
##usu
##usv
##usw
##usx
##usy
##usz
##uta
##utb
##utc
##utd
##ute
##utf
##utg
##uth
##uti
##utj
##utk
##utl
##utm
##utn
##uto
##utp
##utq
##utr
##uts
##utt
##utu
##utv
##utw
##utx
##uty
##utz
##uua
##uub
##uuc
##uud
##uue
##uuf
##uug
##uuh
##uui
##uuj
##uuk
##uul
##uum
##uun
##uuo
##uup
##uuq
##uur
##uus
##uut
##uuu
##uuv
##uuw
##uux
##uuy
##uuz
##uva
##uvb
##uvc
##uvd
##uve
##uvf
##uvg
##uvh
##uvi
##uvj
##uvk
##uvl
##uvm
##uvn
##uvo
##uvp
##uvq
##uvr
##uvs
##uvt
##uvu
##uvv
##uvw
##uvx
##uvy
##uvz
##uwa
##uwb
##uwc
##uwd
##uwe
##uwf
##uwg
##uwh
##uwi
##uwj
##uwk
##uwl
##uwm
##uwn
##uwo
##uwp
##uwq
##uwr
##uws
##uwt
##uwu
##uwv
##uww
##uwx
##uwy
##uwz
##uxa
##uxb
##uxc
##uxd
##uxe
##uxf
##uxg
##uxh
##uxi
##uxj
##uxk
##uxl
##uxm
##uxn
##uxo
##uxp
##uxq
##uxr
##uxs
##uxt
##uxu
##uxv
##uxw
##uxx
##uxy
##uxz
##uya
##uyb
##uyc
##uyd
##uye
##uyf
##uyg
##uyh
##uyi
##uyj
##uyk
##uyl
##uym
##uyn
##uyo
##uyp
##uyq
##uyr
##uys
##uyt
##uyu
##uyv
##uyw
##uyx
##uyy
##uyz
##uza
##uzb
##uzc
##uzd
##uze
##uzf
##uzg
##uzh
##uzi
##uzj
##uzk
##uzl
##uzm
##uzn
##uzo
##uzp
##uzq
##uzr
##uzs
##uzt
##uzu
##uzv
##uzw
##uzx
##uzy
##uzz
##vaa
##vab
##vac
##vad
##vae
##vaf
##vag
##vah
##vai
##vaj
##vak
##val
##vam
##van
##vao
##vap
##vaq
##var
##vas
##vat
##vau
##vav
##vaw
##vax
##vay
##vaz
##vba
##vbb
##vbc
##vbd
##vbe
##vbf
##vbg
##vbh
##vbi
##vbj
##vbk
##vbl
##vbm
##vbn
##vbo
##vbp
##vbq
##vbr
##vbs
##vbt
##vbu
##vbv
##vbw
##vbx
##vby
##vbz
##vca
##vcb
##vcc
##vcd
##vce
##vcf
##vcg
##vch
##vci
##vcj
##vck
##vcl
##vcm
##vcn
##vco
##vcp
##vcq
##vcr
##vcs
##vct
##vcu
##vcv
##vcw
##vcx
##vcy
##vcz
##vda
##vdb
##vdc
##vdd
##vde
##vdf
##vdg
##vdh
##vdi
##vdj
##vdk
##vdl
##vdm
##vdn
##vdo
##vdp
##vdq
##vdr
##vds
##vdt
##vdu
##vdv
##vdw
##vdx
##vdy
##vdz
##vea
##veb
##vec
##ved
##vee
##vef
##veg
##veh
##vei
##vej
##vek
##vel
##vem
##ven
##veo
##vep
##veq
##ver
##ves
##vet
##veu
##vev
##vew
##vex
##vey
##vez
##vfa
##vfb
##vfc
##vfd
##vfe
##vff
##vfg
##vfh
##vfi
##vfj
##vfk
##vfl
##vfm
##vfn
##vfo
##vfp
##vfq
##vfr
##vfs
##vft
##vfu
##vfv
##vfw
##vfx
##vfy
##vfz
##vga
##vgb
##vgc
##vgd
##vge
##vgf
##vgg
##vgh
##vgi
##vgj
##vgk
##vgl
##vgm
##vgn
##vgo
##vgp
##vgq
##vgr
##vgs
##vgt
##vgu
##vgv
##vgw
##vgx
##vgy
##vgz
##vha
##vhb
##vhc
##vhd
##vhe
##vhf
##vhg
##vhh
##vhi
##vhj
##vhk
##vhl
##vhm
##vhn
##vho
##vhp
##vhq
##vhr
##vhs
##vht
##vhu
##vhv
##vhw
##vhx
##vhy
##vhz
##via
##vib
##vic
##vid
##vie
##vif
##vig
##vih
##vii
##vij
##vik
##vil
##vim
##vin
##vio
##vip
##viq
##vir
##vis
##vit
##viu
##viv
##viw
##vix
##viy
##viz
##vja
##vjb
##vjc
##vjd
##vje
##vjf
##vjg
##vjh
##vji
##vjj
##vjk
##vjl
##vjm
##vjn
##vjo
##vjp
##vjq
##vjr
##vjs
##vjt
##vju
##vjv
##vjw
##vjx
##vjy
##vjz
##vka
##vkb
##vkc
##vkd
##vke
##vkf
##vkg
##vkh
##vki
##vkj
##vkk
##vkl
##vkm
##vkn
##vko
##vkp
##vkq
##vkr
##vks
##vkt
##vku
##vkv
##vkw
##vkx
##vky
##vkz
##vla
##vlb
##vlc
##vld
##vle
##vlf
##vlg
##vlh
##vli
##vlj
##vlk
##vll
##vlm
##vln
##vlo
##vlp
##vlq
##vlr
##vls
##vlt
##vlu
##vlv
##vlw
##vlx
##vly
##vlz
##vma
##vmb
##vmc
##vmd
##vme
##vmf
##vmg
##vmh
##vmi
##vmj
##vmk
##vml
##vmm
##vmn
##vmo
##vmp
##vmq
##vmr
##vms
##vmt
##vmu
##vmv
##vmw
##vmx
##vmy
##vmz
##vna
##vnb
##vnc
##vnd
##vne
##vnf
##vng
##vnh
##vni
##vnj
##vnk
##vnl
##vnm
##vnn
##vno
##vnp
##vnq
##vnr
##vns
##vnt
##vnu
##vnv
##vnw
##vnx
##vny
##vnz
##voa
##vob
##voc
##vod
##voe
##vof
##vog
##voh
##voi
##voj
##vok
##vol
##vom
##von
##voo
##vop
##voq
##vor
##vos
##vot
##vou
##vov
##vow
##vox
##voy
##voz
##vpa
##vpb
##vpc
##vpd
##vpe
##vpf
##vpg
##vph
##vpi
##vpj
##vpk
##vpl
##vpm
##vpn
##vpo
##vpp
##vpq
##vpr
##vps
##vpt
##vpu
##vpv
##vpw
##vpx
##vpy
##vpz
##vqa
##vqb
##vqc
##vqd
##vqe
##vqf
##vqg
##vqh
##vqi
##vqj
##vqk
##vql
##vqm
##vqn
##vqo
##vqp
##vqq
##vqr
##vqs
##vqt
##vqu
##vqv
##vqw
##vqx
##vqy
##vqz
##vra
##vrb
##vrc
##vrd
##vre
##vrf
##vrg
##vrh
##vri
##vrj
##vrk
##vrl
##vrm
##vrn
##vro
##vrp
##vrq
##vrr
##vrs
##vrt
##vru
##vrv
##vrw
##vrx
##vry
##vrz
##vsa
##vsb
##vsc
##vsd
##vse
##vsf
##vsg
##vsh
##vsi
##vsj
##vsk
##vsl
##vsm
##vsn
##vso
##vsp
##vsq
##vsr
##vss
##vst
##vsu
##vsv
##vsw
##vsx
##vsy
##vsz
##vta
##vtb
##vtc
##vtd
##vte
##vtf
##vtg
##vth
##vti
##vtj
##vtk
##vtl
##vtm
##vtn
##vto
##vtp
##vtq
##vtr
##vts
##vtt
##vtu
##vtv
##vtw
##vtx
##vty
##vtz
##vua
##vub
##vuc
##vud
##vue
##vuf
##vug
##vuh
##vui
##vuj
##vuk
##vul
##vum
##vun
##vuo
##vup
##vuq
##vur
##vus
##vut
##vuu
##vuv
##vuw
##vux
##vuy
##vuz
##vva
##vvb
##vvc
##vvd
##vve
##vvf
##vvg
##vvh
##vvi
##vvj
##vvk
##vvl
##vvm
##vvn
##vvo
##vvp
##vvq
##vvr
##vvs
##vvt
##vvu
##vvv
##vvw
##vvx
##vvy
##vvz
##vwa
##vwb
##vwc
##vwd
##vwe
##vwf
##vwg
##vwh
##vwi
##vwj
##vwk
##vwl
##vwm
##vwn
##vwo
##vwp
##vwq
##vwr
##vws
##vwt
##vwu
##vwv
##vww
##vwx
##vwy
##vwz
##vxa
##vxb
##vxc
##vxd
##vxe
##vxf
##vxg
##vxh
##vxi
##vxj
##vxk
##vxl
##vxm
##vxn
##vxo
##vxp
##vxq
##vxr
##vxs
##vxt
##vxu
##vxv
##vxw
##vxx
##vxy
##vxz
##vya
##vyb
##vyc
##vyd
##vye
##vyf
##vyg
##vyh
##vyi
##vyj
##vyk
##vyl
##vym
##vyn
##vyo
##vyp
##vyq
##vyr
##vys
##vyt
##vyu
##vyv
##vyw
##vyx
##vyy
##vyz
##vza
##vzb
##vzc
##vzd
##vze
##vzf
##vzg
##vzh
##vzi
##vzj
##vzk
##vzl
##vzm
##vzn
##vzo
##vzp
##vzq
##vzr
##vzs
##vzt
##vzu
##vzv
##vzw
##vzx
##vzy
##vzz
##waa
##wab
##wac
##wad
##wae
##waf
##wag
##wah
##wai
##waj
##wak
##wal
##wam
##wan
##wao
##wap
##waq
##war
##was
##wat
##wau
##wav
##waw
##wax
##way
##waz
##wba
##wbb
##wbc
##wbd
##wbe
##wbf
##wbg
##wbh
##wbi
##wbj
##wbk
##wbl
##wbm
##wbn
##wbo
##wbp
##wbq
##wbr
##wbs
##wbt
##wbu
##wbv
##wbw
##wbx
##wby
##wbz
##wca
##wcb
##wcc
##wcd
##wce
##wcf
##wcg
##wch
##wci
##wcj
##wck
##wcl
##wcm
##wcn
##wco
##wcp
##wcq
##wcr
##wcs
##wct
##wcu
##wcv
##wcw
##wcx
##wcy
##wcz
##wda
##wdb
##wdc
##wdd
##wde
##wdf
##wdg
##wdh
##wdi
##wdj
##wdk
##wdl
##wdm
##wdn
##wdo
##wdp
##wdq
##wdr
##wds
##wdt
##wdu
##wdv
##wdw
##wdx
##wdy
##wdz
##wea
##web
##wec
##wed
##wee
##wef
##weg
##weh
##wei
##wej
##wek
##wel
##wem
##wen
##weo
##wep
##weq
##wer
##wes
##wet
##weu
##wev
##wew
##wex
##wey
##wez
##wfa
##wfb
##wfc
##wfd
##wfe
##wff
##wfg
##wfh
##wfi
##wfj
##wfk
##wfl
##wfm
##wfn
##wfo
##wfp
##wfq
##wfr
##wfs
##wft
##wfu
##wfv
##wfw
##wfx
##wfy
##wfz
##wga
##wgb
##wgc
##wgd
##wge
##wgf
##wgg
##wgh
##wgi
##wgj
##wgk
##wgl
##wgm
##wgn
##wgo
##wgp
##wgq
##wgr
##wgs
##wgt
##wgu
##wgv
##wgw
##wgx
##wgy
##wgz
##wha
##whb
##whc
##whd
##whe
##whf
##whg
##whh
##whi
##whj
##whk
##whl
##whm
##whn
##who
##whp
##whq
##whr
##whs
##wht
##whu
##whv
##whw
##whx
##why
##whz
##wia
##wib
##wic
##wid
##wie
##wif
##wig
##wih
##wii
##wij
##wik
##wil
##wim
##win
##wio
##wip
##wiq
##wir
##wis
##wit
##wiu
##wiv
##wiw
##wix
##wiy
##wiz
##wja
##wjb
##wjc
##wjd
##wje
##wjf
##wjg
##wjh
##wji
##wjj
##wjk
##wjl
##wjm
##wjn
##wjo
##wjp
##wjq
##wjr
##wjs
##wjt
##wju
##wjv
##wjw
##wjx
##wjy
##wjz
##wka
##wkb
##wkc
##wkd
##wke
##wkf
##wkg
##wkh
##wki
##wkj
##wkk
##wkl
##wkm
##wkn
##wko
##wkp
##wkq
##wkr
##wks
##wkt
##wku
##wkv
##wkw
##wkx
##wky
##wkz
##wla
##wlb
##wlc
##wld
##wle
##wlf
##wlg
##wlh
##wli
##wlj
##wlk
##wll
##wlm
##wln
##wlo
##wlp
##wlq
##wlr
##wls
##wlt
##wlu
##wlv
##wlw
##wlx
##wly
##wlz
##wma
##wmb
##wmc
##wmd
##wme
##wmf
##wmg
##wmh
##wmi
##wmj
##wmk
##wml
##wmm
##wmn
##wmo
##wmp
##wmq
##wmr
##wms
##wmt
##wmu
##wmv
##wmw
##wmx
##wmy
##wmz
##wna
##wnb
##wnc
##wnd
##wne
##wnf
##wng
##wnh
##wni
##wnj
##wnk
##wnl
##wnm
##wnn
##wno
##wnp
##wnq
##wnr
##wns
##wnt
##wnu
##wnv
##wnw
##wnx
##wny
##wnz
##woa
##wob
##woc
##wod
##woe
##wof
##wog
##woh
##woi
##woj
##wok
##wol
##wom
##won
##woo
##wop
##woq
##wor
##wos
##wot
##wou
##wov
##wow
##wox
##woy
##woz
##wpa
##wpb
##wpc
##wpd
##wpe
##wpf
##wpg
##wph
##wpi
##wpj
##wpk
##wpl
##wpm
##wpn
##wpo
##wpp
##wpq
##wpr
##wps
##wpt
##wpu
##wpv
##wpw
##wpx
##wpy
##wpz
##wqa
##wqb
##wqc
##wqd
##wqe
##wqf
##wqg
##wqh
##wqi
##wqj
##wqk
##wql
##wqm
##wqn
##wqo
##wqp
##wqq
##wqr
##wqs
##wqt
##wqu
##wqv
##wqw
##wqx
##wqy
##wqz
##wra
##wrb
##wrc
##wrd
##wre
##wrf
##wrg
##wrh
##wri
##wrj
##wrk
##wrl
##wrm
##wrn
##wro
##wrp
##wrq
##wrr
##wrs
##wrt
##wru
##wrv
##wrw
##wrx
##wry
##wrz
##wsa
##wsb
##wsc
##wsd
##wse
##wsf
##wsg
##wsh
##wsi
##wsj
##wsk
##wsl
##wsm
##wsn
##wso
##wsp
##wsq
##wsr
##wss
##wst
##wsu
##wsv
##wsw
##wsx
##wsy
##wsz
##wta
##wtb
##wtc
##wtd
##wte
##wtf
##wtg
##wth
##wti
##wtj
##wtk
##wtl
##wtm
##wtn
##wto
##wtp
##wtq
##wtr
##wts
##wtt
##wtu
##wtv
##wtw
##wtx
##wty
##wtz
##wua
##wub
##wuc
##wud
##wue
##wuf
##wug
##wuh
##wui
##wuj
##wuk
##wul
##wum
##wun
##wuo
##wup
##wuq
##wur
##wus
##wut
##wuu
##wuv
##wuw
##wux
##wuy
##wuz
##wva
##wvb
##wvc
##wvd
##wve
##wvf
##wvg
##wvh
##wvi
##wvj
##wvk
##wvl
##wvm
##wvn
##wvo
##wvp
##wvq
##wvr
##wvs
##wvt
##wvu
##wvv
##wvw
##wvx
##wvy
##wvz
##wwa
##wwb
##wwc
##wwd
##wwe
##wwf
##wwg
##wwh
##wwi
##wwj
##wwk
##wwl
##wwm
##wwn
##wwo
##wwp
##wwq
##wwr
##wws
##wwt
##wwu
##wwv
##www
##wwx
##wwy
##wwz
##wxa
##wxb
##wxc
##wxd
##wxe
##wxf
##wxg
##wxh
##wxi
##wxj
##wxk
##wxl
##wxm
##wxn
##wxo
##wxp
##wxq
##wxr
##wxs
##wxt
##wxu
##wxv
##wxw
##wxx
##wxy
##wxz
##wya
##wyb
##wyc
##wyd
##wye
##wyf
##wyg
##wyh
##wyi
##wyj
##wyk
##wyl
##wym
##wyn
##wyo
##wyp
##wyq
##wyr
##wys
##wyt
##wyu
##wyv
##wyw
##wyx
##wyy
##wyz
##wza
##wzb
##wzc
##wzd
##wze
##wzf
##wzg
##wzh
##wzi
##wzj
##wzk
##wzl
##wzm
##wzn
##wzo
##wzp
##wzq
##wzr
##wzs
##wzt
##wzu
##wzv
##wzw
##wzx
##wzy
##wzz
##xaa
##xab
##xac
##xad
##xae
##xaf
##xag
##xah
##xai
##xaj
##xak
##xal
##xam
##xan
##xao
##xap
##xaq
##xar
##xas
##xat
##xau
##xav
##xaw
##xax
##xay
##xaz
##xba
##xbb
##xbc
##xbd
##xbe
##xbf
##xbg
##xbh
##xbi
##xbj
##xbk
##xbl
##xbm
##xbn
##xbo
##xbp
##xbq
##xbr
##xbs
##xbt
##xbu
##xbv
##xbw
##xbx
##xby
##xbz
##xca
##xcb
##xcc
##xcd
##xce
##xcf
##xcg
##xch
##xci
##xcj
##xck
##xcl
##xcm
##xcn
##xco
##xcp
##xcq
##xcr
##xcs
##xct
##xcu
##xcv
##xcw
##xcx
##xcy
##xcz
##xda
##xdb
##xdc
##xdd
##xde
##xdf
##xdg
##xdh
##xdi
##xdj
##xdk
##xdl
##xdm
##xdn
##xdo
##xdp
##xdq
##xdr
##xds
##xdt
##xdu
##xdv
##xdw
##xdx
##xdy
##xdz
##xea
##xeb
##xec
##xed
##xee
##xef
##xeg
##xeh
##xei
##xej
##xek
##xel
##xem
##xen
##xeo
##xep
##xeq
##xer
##xes
##xet
##xeu
##xev
##xew
##xex
##xey
##xez
##xfa
##xfb
##xfc
##xfd
##xfe
##xff
##xfg
##xfh
##xfi
##xfj
##xfk
##xfl
##xfm
##xfn
##xfo
##xfp
##xfq
##xfr
##xfs
##xft
##xfu
##xfv
##xfw
##xfx
##xfy
##xfz
##xga
##xgb
##xgc
##xgd
##xge
##xgf
##xgg
##xgh
##xgi
##xgj
##xgk
##xgl
##xgm
##xgn
##xgo
##xgp
##xgq
##xgr
##xgs
##xgt
##xgu
##xgv
##xgw
##xgx
##xgy
##xgz
##xha
##xhb
##xhc
##xhd
##xhe
##xhf
##xhg
##xhh
##xhi
##xhj
##xhk
##xhl
##xhm
##xhn
##xho
##xhp
##xhq
##xhr
##xhs
##xht
##xhu
##xhv
##xhw
##xhx
##xhy
##xhz
##xia
##xib
##xic
##xid
##xie
##xif
##xig
##xih
##xii
##xij
##xik
##xil
##xim
##xin
##xio
##xip
##xiq
##xir
##xis
##xit
##xiu
##xiv
##xiw
##xix
##xiy
##xiz
##xja
##xjb
##xjc
##xjd
##xje
##xjf
##xjg
##xjh
##xji
##xjj
##xjk
##xjl
##xjm
##xjn
##xjo
##xjp
##xjq
##xjr
##xjs
##xjt
##xju
##xjv
##xjw
##xjx
##xjy
##xjz
##xka
##xkb
##xkc
##xkd
##xke
##xkf
##xkg
##xkh
##xki
##xkj
##xkk
##xkl
##xkm
##xkn
##xko
##xkp
##xkq
##xkr
##xks
##xkt
##xku
##xkv
##xkw
##xkx
##xky
##xkz
##xla
##xlb
##xlc
##xld
##xle
##xlf
##xlg
##xlh
##xli
##xlj
##xlk
##xll
##xlm
##xln
##xlo
##xlp
##xlq
##xlr
##xls
##xlt
##xlu
##xlv
##xlw
##xlx
##xly
##xlz
##xma
##xmb
##xmc
##xmd
##xme
##xmf
##xmg
##xmh
##xmi
##xmj
##xmk
##xml
##xmm
##xmn
##xmo
##xmp
##xmq
##xmr
##xms
##xmt
##xmu
##xmv
##xmw
##xmx
##xmy
##xmz
##xna
##xnb
##xnc
##xnd
##xne
##xnf
##xng
##xnh
##xni
##xnj
##xnk
##xnl
##xnm
##xnn
##xno
##xnp
##xnq
##xnr
##xns
##xnt
##xnu
##xnv
##xnw
##xnx
##xny
##xnz
##xoa
##xob
##xoc
##xod
##xoe
##xof
##xog
##xoh
##xoi
##xoj
##xok
##xol
##xom
##xon
##xoo
##xop
##xoq
##xor
##xos
##xot
##xou
##xov
##xow
##xox
##xoy
##xoz
##xpa
##xpb
##xpc
##xpd
##xpe
##xpf
##xpg
##xph
##xpi
##xpj
##xpk
##xpl
##xpm
##xpn
##xpo
##xpp
##xpq
##xpr
##xps
##xpt
##xpu
##xpv
##xpw
##xpx
##xpy
##xpz
##xqa
##xqb
##xqc
##xqd
##xqe
##xqf
##xqg
##xqh
##xqi
##xqj
##xqk
##xql
##xqm
##xqn
##xqo
##xqp
##xqq
##xqr
##xqs
##xqt
##xqu
##xqv
##xqw
##xqx
##xqy
##xqz
##xra
##xrb
##xrc
##xrd
##xre
##xrf
##xrg
##xrh
##xri
##xrj
##xrk
##xrl
##xrm
##xrn
##xro
##xrp
##xrq
##xrr
##xrs
##xrt
##xru
##xrv
##xrw
##xrx
##xry
##xrz
##xsa
##xsb
##xsc
##xsd
##xse
##xsf
##xsg
##xsh
##xsi
##xsj
##xsk
##xsl
##xsm
##xsn
##xso
##xsp
##xsq
##xsr
##xss
##xst
##xsu
##xsv
##xsw
##xsx
##xsy
##xsz
##xta
##xtb
##xtc
##xtd
##xte
##xtf
##xtg
##xth
##xti
##xtj
##xtk
##xtl
##xtm
##xtn
##xto
##xtp
##xtq
##xtr
##xts
##xtt
##xtu
##xtv
##xtw
##xtx
##xty
##xtz
##xua
##xub
##xuc
##xud
##xue
##xuf
##xug
##xuh
##xui
##xuj
##xuk
##xul
##xum
##xun
##xuo
##xup
##xuq
##xur
##xus
##xut
##xuu
##xuv
##xuw
##xux
##xuy
##xuz
##xva
##xvb
##xvc
##xvd
##xve
##xvf
##xvg
##xvh
##xvi
##xvj
##xvk
##xvl
##xvm
##xvn
##xvo
##xvp
##xvq
##xvr
##xvs
##xvt
##xvu
##xvv
##xvw
##xvx
##xvy
##xvz
##xwa
##xwb
##xwc
##xwd
##xwe
##xwf
##xwg
##xwh
##xwi
##xwj
##xwk
##xwl
##xwm
##xwn
##xwo
##xwp
##xwq
##xwr
##xws
##xwt
##xwu
##xwv
##xww
##xwx
##xwy
##xwz
##xxa
##xxb
##xxc
##xxd
##xxe
##xxf
##xxg
##xxh
##xxi
##xxj
##xxk
##xxl
##xxm
##xxn
##xxo
##xxp
##xxq
##xxr
##xxs
##xxt
##xxu
##xxv
##xxw
##xxx
##xxy
##xxz
##xya
##xyb
##xyc
##xyd
##xye
##xyf
##xyg
##xyh
##xyi
##xyj
##xyk
##xyl
##xym
##xyn
##xyo
##xyp
##xyq
##xyr
##xys
##xyt
##xyu
##xyv
##xyw
##xyx
##xyy
##xyz
##xza
##xzb
##xzc
##xzd
##xze
##xzf
##xzg
##xzh
##xzi
##xzj
##xzk
##xzl
##xzm
##xzn
##xzo
##xzp
##xzq
##xzr
##xzs
##xzt
##xzu
##xzv
##xzw
##xzx
##xzy
##xzz
##yaa
##yab
##yac
##yad
##yae
##yaf
##yag
##yah
##yai
##yaj
##yak
##yal
##yam
##yan
##yao
##yap
##yaq
##yar
##yas
##yat
##yau
##yav
##yaw
##yax
##yay
##yaz
##yba
##ybb
##ybc
##ybd
##ybe
##ybf
##ybg
##ybh
##ybi
##ybj
##ybk
##ybl
##ybm
##ybn
##ybo
##ybp
##ybq
##ybr
##ybs
##ybt
##ybu
##ybv
##ybw
##ybx
##yby
##ybz
##yca
##ycb
##ycc
##ycd
##yce
##ycf
##ycg
##ych
##yci
##ycj
##yck
##ycl
##ycm
##ycn
##yco
##ycp
##ycq
##ycr
##ycs
##yct
##ycu
##ycv
##ycw
##ycx
##ycy
##ycz
##yda
##ydb
##ydc
##ydd
##yde
##ydf
##ydg
##ydh
##ydi
##ydj
##ydk
##ydl
##ydm
##ydn
##ydo
##ydp
##ydq
##ydr
##yds
##ydt
##ydu
##ydv
##ydw
##ydx
##ydy
##ydz
##yea
##yeb
##yec
##yed
##yee
##yef
##yeg
##yeh
##yei
##yej
##yek
##yel
##yem
##yen
##yeo
##yep
##yeq
##yer
##yes
##yet
##yeu
##yev
##yew
##yex
##yey
##yez
##yfa
##yfb
##yfc
##yfd
##yfe
##yff
##yfg
##yfh
##yfi
##yfj
##yfk
##yfl
##yfm
##yfn
##yfo
##yfp
##yfq
##yfr
##yfs
##yft
##yfu
##yfv
##yfw
##yfx
##yfy
##yfz
##yga
##ygb
##ygc
##ygd
##yge
##ygf
##ygg
##ygh
##ygi
##ygj
##ygk
##ygl
##ygm
##ygn
##ygo
##ygp
##ygq
##ygr
##ygs
##ygt
##ygu
##ygv
##ygw
##ygx
##ygy
##ygz
##yha
##yhb
##yhc
##yhd
##yhe
##yhf
##yhg
##yhh
##yhi
##yhj
##yhk
##yhl
##yhm
##yhn
##yho
##yhp
##yhq
##yhr
##yhs
##yht
##yhu
##yhv
##yhw
##yhx
##yhy
##yhz
##yia
##yib
##yic
##yid
##yie
##yif
##yig
##yih
##yii
##yij
##yik
##yil
##yim
##yin
##yio
##yip
##yiq
##yir
##yis
##yit
##yiu
##yiv
##yiw
##yix
##yiy
##yiz
##yja
##yjb
##yjc
##yjd
##yje
##yjf
##yjg
##yjh
##yji
##yjj
##yjk
##yjl
##yjm
##yjn
##yjo
##yjp
##yjq
##yjr
##yjs
##yjt
##yju
##yjv
##yjw
##yjx
##yjy
##yjz
##yka
##ykb
##ykc
##ykd
##yke
##ykf
##ykg
##ykh
##yki
##ykj
##ykk
##ykl
##ykm
##ykn
##yko
##ykp
##ykq
##ykr
##yks
##ykt
##yku
##ykv
##ykw
##ykx
##yky
##ykz
##yla
##ylb
##ylc
##yld
##yle
##ylf
##ylg
##ylh
##yli
##ylj
##ylk
##yll
##ylm
##yln
##ylo
##ylp
##ylq
##ylr
##yls
##ylt
##ylu
##ylv
##ylw
##ylx
##yly
##ylz
##yma
##ymb
##ymc
##ymd
##yme
##ymf
##ymg
##ymh
##ymi
##ymj
##ymk
##yml
##ymm
##ymn
##ymo
##ymp
##ymq
##ymr
##yms
##ymt
##ymu
##ymv
##ymw
##ymx
##ymy
##ymz
##yna
##ynb
##ync
##ynd
##yne
##ynf
##yng
##ynh
##yni
##ynj
##ynk
##ynl
##ynm
##ynn
##yno
##ynp
##ynq
##ynr
##yns
##ynt
##ynu
##ynv
##ynw
##ynx
##yny
##ynz
##yoa
##yob
##yoc
##yod
##yoe
##yof
##yog
##yoh
##yoi
##yoj
##yok
##yol
##yom
##yon
##yoo
##yop
##yoq
##yor
##yos
##yot
##you
##yov
##yow
##yox
##yoy
##yoz
##ypa
##ypb
##ypc
##ypd
##ype
##ypf
##ypg
##yph
##ypi
##ypj
##ypk
##ypl
##ypm
##ypn
##ypo
##ypp
##ypq
##ypr
##yps
##ypt
##ypu
##ypv
##ypw
##ypx
##ypy
##ypz
##yqa
##yqb
##yqc
##yqd
##yqe
##yqf
##yqg
##yqh
##yqi
##yqj
##yqk
##yql
##yqm
##yqn
##yqo
##yqp
##yqq
##yqr
##yqs
##yqt
##yqu
##yqv
##yqw
##yqx
##yqy
##yqz
##yra
##yrb
##yrc
##yrd
##yre
##yrf
##yrg
##yrh
##yri
##yrj
##yrk
##yrl
##yrm
##yrn
##yro
##yrp
##yrq
##yrr
##yrs
##yrt
##yru
##yrv
##yrw
##yrx
##yry
##yrz
##ysa
##ysb
##ysc
##ysd
##yse
##ysf
##ysg
##ysh
##ysi
##ysj
##ysk
##ysl
##ysm
##ysn
##yso
##ysp
##ysq
##ysr
##yss
##yst
##ysu
##ysv
##ysw
##ysx
##ysy
##ysz
##yta
##ytb
##ytc
##ytd
##yte
##ytf
##ytg
##yth
##yti
##ytj
##ytk
##ytl
##ytm
##ytn
##yto
##ytp
##ytq
##ytr
##yts
##ytt
##ytu
##ytv
##ytw
##ytx
##yty
##ytz
##yua
##yub
##yuc
##yud
##yue
##yuf
##yug
##yuh
##yui
##yuj
##yuk
##yul
##yum
##yun
##yuo
##yup
##yuq
##yur
##yus
##yut
##yuu
##yuv
##yuw
##yux
##yuy
##yuz
##yva
##yvb
##yvc
##yvd
##yve
##yvf
##yvg
##yvh
##yvi
##yvj
##yvk
##yvl
##yvm
##yvn
##yvo
##yvp
##yvq
##yvr
##yvs
##yvt
##yvu
##yvv
##yvw
##yvx
##yvy
##yvz
##ywa
##ywb
##ywc
##ywd
##ywe
##ywf
##ywg
##ywh
##ywi
##ywj
##ywk
##ywl
##ywm
##ywn
##ywo
##ywp
##ywq
##ywr
##yws
##ywt
##ywu
##ywv
##yww
##ywx
##ywy
##ywz
##yxa
##yxb
##yxc
##yxd
##yxe
##yxf
##yxg
##yxh
##yxi
##yxj
##yxk
##yxl
##yxm
##yxn
##yxo
##yxp
##yxq
##yxr
##yxs
##yxt
##yxu
##yxv
##yxw
##yxx
##yxy
##yxz
##yya
##yyb
##yyc
##yyd
##yye
##yyf
##yyg
##yyh
##yyi
##yyj
##yyk
##yyl
##yym
##yyn
##yyo
##yyp
##yyq
##yyr
##yys
##yyt
##yyu
##yyv
##yyw
##yyx
##yyy
##yyz
##yza
##yzb
##yzc
##yzd
##yze
##yzf
##yzg
##yzh
##yzi
##yzj
##yzk
##yzl
##yzm
##yzn
##yzo
##yzp
##yzq
##yzr
##yzs
##yzt
##yzu
##yzv
##yzw
##yzx
##yzy
##yzz
##zaa
##zab
##zac
##zad
##zae
##zaf
##zag
##zah
##zai
##zaj
##zak
##zal
##zam
##zan
##zao
##zap
##zaq
##zar
##zas
##zat
##zau
##zav
##zaw
##zax
##zay
##zaz
##zba
##zbb
##zbc
##zbd
##zbe
##zbf
##zbg
##zbh
##zbi
##zbj
##zbk
##zbl
##zbm
##zbn
##zbo
##zbp
##zbq
##zbr
##zbs
##zbt
##zbu
##zbv
##zbw
##zbx
##zby
##zbz
##zca
##zcb
##zcc
##zcd
##zce
##zcf
##zcg
##zch
##zci
##zcj
##zck
##zcl
##zcm
##zcn
##zco
##zcp
##zcq
##zcr
##zcs
##zct
##zcu
##zcv
##zcw
##zcx
##zcy
##zcz
##zda
##zdb
##zdc
##zdd
##zde
##zdf
##zdg
##zdh
##zdi
##zdj
##zdk
##zdl
##zdm
##zdn
##zdo
##zdp
##zdq
##zdr
##zds
##zdt
##zdu
##zdv
##zdw
##zdx
##zdy
##zdz
##zea
##zeb
##zec
##zed
##zee
##zef
##zeg
##zeh
##zei
##zej
##zek
##zel
##zem
##zen
##zeo
##zep
##zeq
##zer
##zes
##zet
##zeu
##zev
##zew
##zex
##zey
##zez
##zfa
##zfb
##zfc
##zfd
##zfe
##zff
##zfg
##zfh
##zfi
##zfj
##zfk
##zfl
##zfm
##zfn
##zfo
##zfp
##zfq
##zfr
##zfs
##zft
##zfu
##zfv
##zfw
##zfx
##zfy
##zfz
##zga
##zgb
##zgc
##zgd
##zge
##zgf
##zgg
##zgh
##zgi
##zgj
##zgk
##zgl
##zgm
##zgn
##zgo
##zgp
##zgq
##zgr
##zgs
##zgt
##zgu
##zgv
##zgw
##zgx
##zgy
##zgz
##zha
##zhb
##zhc
##zhd
##zhe
##zhf
##zhg
##zhh
##zhi
##zhj
##zhk
##zhl
##zhm
##zhn
##zho
##zhp
##zhq
##zhr
##zhs
##zht
##zhu
##zhv
##zhw
##zhx
##zhy
##zhz
##zia
##zib
##zic
##zid
##zie
##zif
##zig
##zih
##zii
##zij
##zik
##zil
##zim
##zin
##zio
##zip
##ziq
##zir
##zis
##zit
##ziu
##ziv
##ziw
##zix
##ziy
##ziz
##zja
##zjb
##zjc
##zjd
##zje
##zjf
##zjg
##zjh
##zji
##zjj
##zjk
##zjl
##zjm
##zjn
##zjo
##zjp
##zjq
##zjr
##zjs
##zjt
##zju
##zjv
##zjw
##zjx
##zjy
##zjz
##zka
##zkb
##zkc
##zkd
##zke
##zkf
##zkg
##zkh
##zki
##zkj
##zkk
##zkl
##zkm
##zkn
##zko
##zkp
##zkq
##zkr
##zks
##zkt
##zku
##zkv
##zkw
##zkx
##zky
##zkz
##zla
##zlb
##zlc
##zld
##zle
##zlf
##zlg
##zlh
##zli
##zlj
##zlk
##zll
##zlm
##zln
##zlo
##zlp
##zlq
##zlr
##zls
##zlt
##zlu
##zlv
##zlw
##zlx
##zly
##zlz
##zma
##zmb
##zmc
##zmd
##zme
##zmf
##zmg
##zmh
##zmi
##zmj
##zmk
##zml
##zmm
##zmn
##zmo
##zmp
##zmq
##zmr
##zms
##zmt
##zmu
##zmv
##zmw
##zmx
##zmy
##zmz
##zna
##znb
##znc
##znd
##zne
##znf
##zng
##znh
##zni
##znj
##znk
##znl
##znm
##znn
##zno
##znp
##znq
##znr
##zns
##znt
##znu
##znv
##znw
##znx
##zny
##znz
##zoa
##zob
##zoc
##zod
##zoe
##zof
##zog
##zoh
##zoi
##zoj
##zok
##zol
##zom
##zon
##zoo
##zop
##zoq
##zor
##zos
##zot
##zou
##zov
##zow
##zox
##zoy
##zoz
##zpa
##zpb
##zpc
##zpd
##zpe
##zpf
##zpg
##zph
##zpi
##zpj
##zpk
##zpl
##zpm
##zpn
##zpo
##zpp
##zpq
##zpr
##zps
##zpt
##zpu
##zpv
##zpw
##zpx
##zpy
##zpz
##zqa
##zqb
##zqc
##zqd
##zqe
##zqf
##zqg
##zqh
##zqi
##zqj
##zqk
##zql
##zqm
##zqn
##zqo
##zqp
##zqq
##zqr
##zqs
##zqt
##zqu
##zqv
##zqw
##zqx
##zqy
##zqz
##zra
##zrb
##zrc
##zrd
##zre
##zrf
##zrg
##zrh
##zri
##zrj
##zrk
##zrl
##zrm
##zrn
##zro
##zrp
##zrq
##zrr
##zrs
##zrt
##zru
##zrv
##zrw
##zrx
##zry
##zrz
##zsa
##zsb
##zsc
##zsd
##zse
##zsf
##zsg
##zsh
##zsi
##zsj
##zsk
##zsl
##zsm
##zsn
##zso
##zsp
##zsq
##zsr
##zss
##zst
##zsu
##zsv
##zsw
##zsx
##zsy
##zsz
##zta
##ztb
##ztc
##ztd
##zte
##ztf
##ztg
##zth
##zti
##ztj
##ztk
##ztl
##ztm
##ztn
##zto
##ztp
##ztq
##ztr
##zts
##ztt
##ztu
##ztv
##ztw
##ztx
##zty
##ztz
##zua
##zub
##zuc
##zud
##zue
##zuf
##zug
##zuh
##zui
##zuj
##zuk
##zul
##zum
##zun
##zuo
##zup
##zuq
##zur
##zus
##zut
##zuu
##zuv
##zuw
##zux
##zuy
##zuz
##zva
##zvb
##zvc
##zvd
##zve
##zvf
##zvg
##zvh
##zvi
##zvj
##zvk
##zvl
##zvm
##zvn
##zvo
##zvp
##zvq
##zvr
##zvs
##zvt
##zvu
##zvv
##zvw
##zvx
##zvy
##zvz
##zwa
##zwb
##zwc
##zwd
##zwe
##zwf
##zwg
##zwh
##zwi
##zwj
##zwk
##zwl
##zwm
##zwn
##zwo
##zwp
##zwq
##zwr
##zws
##zwt
##zwu
##zwv
##zww
##zwx
##zwy
##zwz
##zxa
##zxb
##zxc
##zxd
##zxe
##zxf
##zxg
##zxh
##zxi
##zxj
##zxk
##zxl
##zxm
##zxn
##zxo
##zxp
##zxq
##zxr
##zxs
##zxt
##zxu
##zxv
##zxw
##zxx
##zxy
##zxz
##zya
##zyb
##zyc
##zyd
##zye
##zyf
##zyg
##zyh
##zyi
##zyj
##zyk
##zyl
##zym
##zyn
##zyo
##zyp
##zyq
##zyr
##zys
##zyt
##zyu
##zyv
##zyw
##zyx
##zyy
##zyz
##zza
##zzb
##zzc
##zzd
##zze
##zzf
##zzg
##zzh
##zzi
##zzj
##zzk
##zzl
##zzm
##zzn
##zzo
##zzp
##zzq
##zzr
##zzs
##zzt
##zzu
##zzv
##zzw
##zzx
##zzy
##zzz
[UNUSED_18605]
[UNUSED_18606]
[UNUSED_18607]
[UNUSED_18608]
[UNUSED_18609]
[UNUSED_18610]
[UNUSED_18611]
[UNUSED_18612]
[UNUSED_18613]
[UNUSED_18614]
[UNUSED_18615]
[UNUSED_18616]
[UNUSED_18617]
[UNUSED_18618]
[UNUSED_18619]
[UNUSED_18620]
[UNUSED_18621]
[UNUSED_18622]
[UNUSED_18623]
[UNUSED_18624]
[UNUSED_18625]
[UNUSED_18626]
[UNUSED_18627]
[UNUSED_18628]
[UNUSED_18629]
[UNUSED_18630]
[UNUSED_18631]
[UNUSED_18632]
[UNUSED_18633]
[UNUSED_18634]
[UNUSED_18635]
[UNUSED_18636]
[UNUSED_18637]
[UNUSED_18638]
[UNUSED_18639]
[UNUSED_18640]
[UNUSED_18641]
[UNUSED_18642]
[UNUSED_18643]
[UNUSED_18644]
[UNUSED_18645]
[UNUSED_18646]
[UNUSED_18647]
[UNUSED_18648]
[UNUSED_18649]
[UNUSED_18650]
[UNUSED_18651]
[UNUSED_18652]
[UNUSED_18653]
[UNUSED_18654]
[UNUSED_18655]
[UNUSED_18656]
[UNUSED_18657]
[UNUSED_18658]
[UNUSED_18659]
[UNUSED_18660]
[UNUSED_18661]
[UNUSED_18662]
[UNUSED_18663]
[UNUSED_18664]
[UNUSED_18665]
[UNUSED_18666]
[UNUSED_18667]
[UNUSED_18668]
[UNUSED_18669]
[UNUSED_18670]
[UNUSED_18671]
[UNUSED_18672]
[UNUSED_18673]
[UNUSED_18674]
[UNUSED_18675]
[UNUSED_18676]
[UNUSED_18677]
[UNUSED_18678]
[UNUSED_18679]
[UNUSED_18680]
[UNUSED_18681]
[UNUSED_18682]
[UNUSED_18683]
[UNUSED_18684]
[UNUSED_18685]
[UNUSED_18686]
[UNUSED_18687]
[UNUSED_18688]
[UNUSED_18689]
[UNUSED_18690]
[UNUSED_18691]
[UNUSED_18692]
[UNUSED_18693]
[UNUSED_18694]
[UNUSED_18695]
[UNUSED_18696]
[UNUSED_18697]
[UNUSED_18698]
[UNUSED_18699]
[UNUSED_18700]
[UNUSED_18701]
[UNUSED_18702]
[UNUSED_18703]
[UNUSED_18704]
[UNUSED_18705]
[UNUSED_18706]
[UNUSED_18707]
[UNUSED_18708]
[UNUSED_18709]
[UNUSED_18710]
[UNUSED_18711]
[UNUSED_18712]
[UNUSED_18713]
[UNUSED_18714]
[UNUSED_18715]
[UNUSED_18716]
[UNUSED_18717]
[UNUSED_18718]
[UNUSED_18719]
[UNUSED_18720]
[UNUSED_18721]
[UNUSED_18722]
[UNUSED_18723]
[UNUSED_18724]
[UNUSED_18725]
[UNUSED_18726]
[UNUSED_18727]
[UNUSED_18728]
[UNUSED_18729]
[UNUSED_18730]
[UNUSED_18731]
[UNUSED_18732]
[UNUSED_18733]
[UNUSED_18734]
[UNUSED_18735]
[UNUSED_18736]
[UNUSED_18737]
[UNUSED_18738]
[UNUSED_18739]
[UNUSED_18740]
[UNUSED_18741]
[UNUSED_18742]
[UNUSED_18743]
[UNUSED_18744]
[UNUSED_18745]
[UNUSED_18746]
[UNUSED_18747]
[UNUSED_18748]
[UNUSED_18749]
[UNUSED_18750]
[UNUSED_18751]
[UNUSED_18752]
[UNUSED_18753]
[UNUSED_18754]
[UNUSED_18755]
[UNUSED_18756]
[UNUSED_18757]
[UNUSED_18758]
[UNUSED_18759]
[UNUSED_18760]
[UNUSED_18761]
[UNUSED_18762]
[UNUSED_18763]
[UNUSED_18764]
[UNUSED_18765]
[UNUSED_18766]
[UNUSED_18767]
[UNUSED_18768]
[UNUSED_18769]
[UNUSED_18770]
[UNUSED_18771]
[UNUSED_18772]
[UNUSED_18773]
[UNUSED_18774]
[UNUSED_18775]
[UNUSED_18776]
[UNUSED_18777]
[UNUSED_18778]
[UNUSED_18779]
[UNUSED_18780]
[UNUSED_18781]
[UNUSED_18782]
[UNUSED_18783]
[UNUSED_18784]
[UNUSED_18785]
[UNUSED_18786]
[UNUSED_18787]
[UNUSED_18788]
[UNUSED_18789]
[UNUSED_18790]
[UNUSED_18791]
[UNUSED_18792]
[UNUSED_18793]
[UNUSED_18794]
[UNUSED_18795]
[UNUSED_18796]
[UNUSED_18797]
[UNUSED_18798]
[UNUSED_18799]
[UNUSED_18800]
[UNUSED_18801]
[UNUSED_18802]
[UNUSED_18803]
[UNUSED_18804]
[UNUSED_18805]
[UNUSED_18806]
[UNUSED_18807]
[UNUSED_18808]
[UNUSED_18809]
[UNUSED_18810]
[UNUSED_18811]
[UNUSED_18812]
[UNUSED_18813]
[UNUSED_18814]
[UNUSED_18815]
[UNUSED_18816]
[UNUSED_18817]
[UNUSED_18818]
[UNUSED_18819]
[UNUSED_18820]
[UNUSED_18821]
[UNUSED_18822]
[UNUSED_18823]
[UNUSED_18824]
[UNUSED_18825]
[UNUSED_18826]
[UNUSED_18827]
[UNUSED_18828]
[UNUSED_18829]
[UNUSED_18830]
[UNUSED_18831]
[UNUSED_18832]
[UNUSED_18833]
[UNUSED_18834]
[UNUSED_18835]
[UNUSED_18836]
[UNUSED_18837]
[UNUSED_18838]
[UNUSED_18839]
[UNUSED_18840]
[UNUSED_18841]
[UNUSED_18842]
[UNUSED_18843]
[UNUSED_18844]
[UNUSED_18845]
[UNUSED_18846]
[UNUSED_18847]
[UNUSED_18848]
[UNUSED_18849]
[UNUSED_18850]
[UNUSED_18851]
[UNUSED_18852]
[UNUSED_18853]
[UNUSED_18854]
[UNUSED_18855]
[UNUSED_18856]
[UNUSED_18857]
[UNUSED_18858]
[UNUSED_18859]
[UNUSED_18860]
[UNUSED_18861]
[UNUSED_18862]
[UNUSED_18863]
[UNUSED_18864]
[UNUSED_18865]
[UNUSED_18866]
[UNUSED_18867]
[UNUSED_18868]
[UNUSED_18869]
[UNUSED_18870]
[UNUSED_18871]
[UNUSED_18872]
[UNUSED_18873]
[UNUSED_18874]
[UNUSED_18875]
[UNUSED_18876]
[UNUSED_18877]
[UNUSED_18878]
[UNUSED_18879]
[UNUSED_18880]
[UNUSED_18881]
[UNUSED_18882]
[UNUSED_18883]
[UNUSED_18884]
[UNUSED_18885]
[UNUSED_18886]
[UNUSED_18887]
[UNUSED_18888]
[UNUSED_18889]
[UNUSED_18890]
[UNUSED_18891]
[UNUSED_18892]
[UNUSED_18893]
[UNUSED_18894]
[UNUSED_18895]
[UNUSED_18896]
[UNUSED_18897]
[UNUSED_18898]
[UNUSED_18899]
[UNUSED_18900]
[UNUSED_18901]
[UNUSED_18902]
[UNUSED_18903]
[UNUSED_18904]
[UNUSED_18905]
[UNUSED_18906]
[UNUSED_18907]
[UNUSED_18908]
[UNUSED_18909]
[UNUSED_18910]
[UNUSED_18911]
[UNUSED_18912]
[UNUSED_18913]
[UNUSED_18914]
[UNUSED_18915]
[UNUSED_18916]
[UNUSED_18917]
[UNUSED_18918]
[UNUSED_18919]
[UNUSED_18920]
[UNUSED_18921]
[UNUSED_18922]
[UNUSED_18923]
[UNUSED_18924]
[UNUSED_18925]
[UNUSED_18926]
[UNUSED_18927]
[UNUSED_18928]
[UNUSED_18929]
[UNUSED_18930]
[UNUSED_18931]
[UNUSED_18932]
[UNUSED_18933]
[UNUSED_18934]
[UNUSED_18935]
[UNUSED_18936]
[UNUSED_18937]
[UNUSED_18938]
[UNUSED_18939]
[UNUSED_18940]
[UNUSED_18941]
[UNUSED_18942]
[UNUSED_18943]
[UNUSED_18944]
[UNUSED_18945]
[UNUSED_18946]
[UNUSED_18947]
[UNUSED_18948]
[UNUSED_18949]
[UNUSED_18950]
[UNUSED_18951]
[UNUSED_18952]
[UNUSED_18953]
[UNUSED_18954]
[UNUSED_18955]
[UNUSED_18956]
[UNUSED_18957]
[UNUSED_18958]
[UNUSED_18959]
[UNUSED_18960]
[UNUSED_18961]
[UNUSED_18962]
[UNUSED_18963]
[UNUSED_18964]
[UNUSED_18965]
[UNUSED_18966]
[UNUSED_18967]
[UNUSED_18968]
[UNUSED_18969]
[UNUSED_18970]
[UNUSED_18971]
[UNUSED_18972]
[UNUSED_18973]
[UNUSED_18974]
[UNUSED_18975]
[UNUSED_18976]
[UNUSED_18977]
[UNUSED_18978]
[UNUSED_18979]
[UNUSED_18980]
[UNUSED_18981]
[UNUSED_18982]
[UNUSED_18983]
[UNUSED_18984]
[UNUSED_18985]
[UNUSED_18986]
[UNUSED_18987]
[UNUSED_18988]
[UNUSED_18989]
[UNUSED_18990]
[UNUSED_18991]
[UNUSED_18992]
[UNUSED_18993]
[UNUSED_18994]
[UNUSED_18995]
[UNUSED_18996]
[UNUSED_18997]
[UNUSED_18998]
[UNUSED_18999]
[UNUSED_19000]
[UNUSED_19001]
[UNUSED_19002]
[UNUSED_19003]
[UNUSED_19004]
[UNUSED_19005]
[UNUSED_19006]
[UNUSED_19007]
[UNUSED_19008]
[UNUSED_19009]
[UNUSED_19010]
[UNUSED_19011]
[UNUSED_19012]
[UNUSED_19013]
[UNUSED_19014]
[UNUSED_19015]
[UNUSED_19016]
[UNUSED_19017]
[UNUSED_19018]
[UNUSED_19019]
[UNUSED_19020]
[UNUSED_19021]
[UNUSED_19022]
[UNUSED_19023]
[UNUSED_19024]
[UNUSED_19025]
[UNUSED_19026]
[UNUSED_19027]
[UNUSED_19028]
[UNUSED_19029]
[UNUSED_19030]
[UNUSED_19031]
[UNUSED_19032]
[UNUSED_19033]
[UNUSED_19034]
[UNUSED_19035]
[UNUSED_19036]
[UNUSED_19037]
[UNUSED_19038]
[UNUSED_19039]
[UNUSED_19040]
[UNUSED_19041]
[UNUSED_19042]
[UNUSED_19043]
[UNUSED_19044]
[UNUSED_19045]
[UNUSED_19046]
[UNUSED_19047]
[UNUSED_19048]
[UNUSED_19049]
[UNUSED_19050]
[UNUSED_19051]
[UNUSED_19052]
[UNUSED_19053]
[UNUSED_19054]
[UNUSED_19055]
[UNUSED_19056]
[UNUSED_19057]
[UNUSED_19058]
[UNUSED_19059]
[UNUSED_19060]
[UNUSED_19061]
[UNUSED_19062]
[UNUSED_19063]
[UNUSED_19064]
[UNUSED_19065]
[UNUSED_19066]
[UNUSED_19067]
[UNUSED_19068]
[UNUSED_19069]
[UNUSED_19070]
[UNUSED_19071]
[UNUSED_19072]
[UNUSED_19073]
[UNUSED_19074]
[UNUSED_19075]
[UNUSED_19076]
[UNUSED_19077]
[UNUSED_19078]
[UNUSED_19079]
[UNUSED_19080]
[UNUSED_19081]
[UNUSED_19082]
[UNUSED_19083]
[UNUSED_19084]
[UNUSED_19085]
[UNUSED_19086]
[UNUSED_19087]
[UNUSED_19088]
[UNUSED_19089]
[UNUSED_19090]
[UNUSED_19091]
[UNUSED_19092]
[UNUSED_19093]
[UNUSED_19094]
[UNUSED_19095]
[UNUSED_19096]
[UNUSED_19097]
[UNUSED_19098]
[UNUSED_19099]
[UNUSED_19100]
[UNUSED_19101]
[UNUSED_19102]
[UNUSED_19103]
[UNUSED_19104]
[UNUSED_19105]
[UNUSED_19106]
[UNUSED_19107]
[UNUSED_19108]
[UNUSED_19109]
[UNUSED_19110]
[UNUSED_19111]
[UNUSED_19112]
[UNUSED_19113]
[UNUSED_19114]
[UNUSED_19115]
[UNUSED_19116]
[UNUSED_19117]
[UNUSED_19118]
[UNUSED_19119]
[UNUSED_19120]
[UNUSED_19121]
[UNUSED_19122]
[UNUSED_19123]
[UNUSED_19124]
[UNUSED_19125]
[UNUSED_19126]
[UNUSED_19127]
[UNUSED_19128]
[UNUSED_19129]
[UNUSED_19130]
[UNUSED_19131]
[UNUSED_19132]
[UNUSED_19133]
[UNUSED_19134]
[UNUSED_19135]
[UNUSED_19136]
[UNUSED_19137]
[UNUSED_19138]
[UNUSED_19139]
[UNUSED_19140]
[UNUSED_19141]
[UNUSED_19142]
[UNUSED_19143]
[UNUSED_19144]
[UNUSED_19145]
[UNUSED_19146]
[UNUSED_19147]
[UNUSED_19148]
[UNUSED_19149]
[UNUSED_19150]
[UNUSED_19151]
[UNUSED_19152]
[UNUSED_19153]
[UNUSED_19154]
[UNUSED_19155]
[UNUSED_19156]
[UNUSED_19157]
[UNUSED_19158]
[UNUSED_19159]
[UNUSED_19160]
[UNUSED_19161]
[UNUSED_19162]
[UNUSED_19163]
[UNUSED_19164]
[UNUSED_19165]
[UNUSED_19166]
[UNUSED_19167]
[UNUSED_19168]
[UNUSED_19169]
[UNUSED_19170]
[UNUSED_19171]
[UNUSED_19172]
[UNUSED_19173]
[UNUSED_19174]
[UNUSED_19175]
[UNUSED_19176]
[UNUSED_19177]
[UNUSED_19178]
[UNUSED_19179]
[UNUSED_19180]
[UNUSED_19181]
[UNUSED_19182]
[UNUSED_19183]
[UNUSED_19184]
[UNUSED_19185]
[UNUSED_19186]
[UNUSED_19187]
[UNUSED_19188]
[UNUSED_19189]
[UNUSED_19190]
[UNUSED_19191]
[UNUSED_19192]
[UNUSED_19193]
[UNUSED_19194]
[UNUSED_19195]
[UNUSED_19196]
[UNUSED_19197]
[UNUSED_19198]
[UNUSED_19199]
[UNUSED_19200]
[UNUSED_19201]
[UNUSED_19202]
[UNUSED_19203]
[UNUSED_19204]
[UNUSED_19205]
[UNUSED_19206]
[UNUSED_19207]
[UNUSED_19208]
[UNUSED_19209]
[UNUSED_19210]
[UNUSED_19211]
[UNUSED_19212]
[UNUSED_19213]
[UNUSED_19214]
[UNUSED_19215]
[UNUSED_19216]
[UNUSED_19217]
[UNUSED_19218]
[UNUSED_19219]
[UNUSED_19220]
[UNUSED_19221]
[UNUSED_19222]
[UNUSED_19223]
[UNUSED_19224]
[UNUSED_19225]
[UNUSED_19226]
[UNUSED_19227]
[UNUSED_19228]
[UNUSED_19229]
[UNUSED_19230]
[UNUSED_19231]
[UNUSED_19232]
[UNUSED_19233]
[UNUSED_19234]
[UNUSED_19235]
[UNUSED_19236]
[UNUSED_19237]
[UNUSED_19238]
[UNUSED_19239]
[UNUSED_19240]
[UNUSED_19241]
[UNUSED_19242]
[UNUSED_19243]
[UNUSED_19244]
[UNUSED_19245]
[UNUSED_19246]
[UNUSED_19247]
[UNUSED_19248]
[UNUSED_19249]
[UNUSED_19250]
[UNUSED_19251]
[UNUSED_19252]
[UNUSED_19253]
[UNUSED_19254]
[UNUSED_19255]
[UNUSED_19256]
[UNUSED_19257]
[UNUSED_19258]
[UNUSED_19259]
[UNUSED_19260]
[UNUSED_19261]
[UNUSED_19262]
[UNUSED_19263]
[UNUSED_19264]
[UNUSED_19265]
[UNUSED_19266]
[UNUSED_19267]
[UNUSED_19268]
[UNUSED_19269]
[UNUSED_19270]
[UNUSED_19271]
[UNUSED_19272]
[UNUSED_19273]
[UNUSED_19274]
[UNUSED_19275]
[UNUSED_19276]
[UNUSED_19277]
[UNUSED_19278]
[UNUSED_19279]
[UNUSED_19280]
[UNUSED_19281]
[UNUSED_19282]
[UNUSED_19283]
[UNUSED_19284]
[UNUSED_19285]
[UNUSED_19286]
[UNUSED_19287]
[UNUSED_19288]
[UNUSED_19289]
[UNUSED_19290]
[UNUSED_19291]
[UNUSED_19292]
[UNUSED_19293]
[UNUSED_19294]
[UNUSED_19295]
[UNUSED_19296]
[UNUSED_19297]
[UNUSED_19298]
[UNUSED_19299]
[UNUSED_19300]
[UNUSED_19301]
[UNUSED_19302]
[UNUSED_19303]
[UNUSED_19304]
[UNUSED_19305]
[UNUSED_19306]
[UNUSED_19307]
[UNUSED_19308]
[UNUSED_19309]
[UNUSED_19310]
[UNUSED_19311]
[UNUSED_19312]
[UNUSED_19313]
[UNUSED_19314]
[UNUSED_19315]
[UNUSED_19316]
[UNUSED_19317]
[UNUSED_19318]
[UNUSED_19319]
[UNUSED_19320]
[UNUSED_19321]
[UNUSED_19322]
[UNUSED_19323]
[UNUSED_19324]
[UNUSED_19325]
[UNUSED_19326]
[UNUSED_19327]
[UNUSED_19328]
[UNUSED_19329]
[UNUSED_19330]
[UNUSED_19331]
[UNUSED_19332]
[UNUSED_19333]
[UNUSED_19334]
[UNUSED_19335]
[UNUSED_19336]
[UNUSED_19337]
[UNUSED_19338]
[UNUSED_19339]
[UNUSED_19340]
[UNUSED_19341]
[UNUSED_19342]
[UNUSED_19343]
[UNUSED_19344]
[UNUSED_19345]
[UNUSED_19346]
[UNUSED_19347]
[UNUSED_19348]
[UNUSED_19349]
[UNUSED_19350]
[UNUSED_19351]
[UNUSED_19352]
[UNUSED_19353]
[UNUSED_19354]
[UNUSED_19355]
[UNUSED_19356]
[UNUSED_19357]
[UNUSED_19358]
[UNUSED_19359]
[UNUSED_19360]
[UNUSED_19361]
[UNUSED_19362]
[UNUSED_19363]
[UNUSED_19364]
[UNUSED_19365]
[UNUSED_19366]
[UNUSED_19367]
[UNUSED_19368]
[UNUSED_19369]
[UNUSED_19370]
[UNUSED_19371]
[UNUSED_19372]
[UNUSED_19373]
[UNUSED_19374]
[UNUSED_19375]
[UNUSED_19376]
[UNUSED_19377]
[UNUSED_19378]
[UNUSED_19379]
[UNUSED_19380]
[UNUSED_19381]
[UNUSED_19382]
[UNUSED_19383]
[UNUSED_19384]
[UNUSED_19385]
[UNUSED_19386]
[UNUSED_19387]
[UNUSED_19388]
[UNUSED_19389]
[UNUSED_19390]
[UNUSED_19391]
[UNUSED_19392]
[UNUSED_19393]
[UNUSED_19394]
[UNUSED_19395]
[UNUSED_19396]
[UNUSED_19397]
[UNUSED_19398]
[UNUSED_19399]
[UNUSED_19400]
[UNUSED_19401]
[UNUSED_19402]
[UNUSED_19403]
[UNUSED_19404]
[UNUSED_19405]
[UNUSED_19406]
[UNUSED_19407]
[UNUSED_19408]
[UNUSED_19409]
[UNUSED_19410]
[UNUSED_19411]
[UNUSED_19412]
[UNUSED_19413]
[UNUSED_19414]
[UNUSED_19415]
[UNUSED_19416]
[UNUSED_19417]
[UNUSED_19418]
[UNUSED_19419]
[UNUSED_19420]
[UNUSED_19421]
[UNUSED_19422]
[UNUSED_19423]
[UNUSED_19424]
[UNUSED_19425]
[UNUSED_19426]
[UNUSED_19427]
[UNUSED_19428]
[UNUSED_19429]
[UNUSED_19430]
[UNUSED_19431]
[UNUSED_19432]
[UNUSED_19433]
[UNUSED_19434]
[UNUSED_19435]
[UNUSED_19436]
[UNUSED_19437]
[UNUSED_19438]
[UNUSED_19439]
[UNUSED_19440]
[UNUSED_19441]
[UNUSED_19442]
[UNUSED_19443]
[UNUSED_19444]
[UNUSED_19445]
[UNUSED_19446]
[UNUSED_19447]
[UNUSED_19448]
[UNUSED_19449]
[UNUSED_19450]
[UNUSED_19451]
[UNUSED_19452]
[UNUSED_19453]
[UNUSED_19454]
[UNUSED_19455]
[UNUSED_19456]
[UNUSED_19457]
[UNUSED_19458]
[UNUSED_19459]
[UNUSED_19460]
[UNUSED_19461]
[UNUSED_19462]
[UNUSED_19463]
[UNUSED_19464]
[UNUSED_19465]
[UNUSED_19466]
[UNUSED_19467]
[UNUSED_19468]
[UNUSED_19469]
[UNUSED_19470]
[UNUSED_19471]
[UNUSED_19472]
[UNUSED_19473]
[UNUSED_19474]
[UNUSED_19475]
[UNUSED_19476]
[UNUSED_19477]
[UNUSED_19478]
[UNUSED_19479]
[UNUSED_19480]
[UNUSED_19481]
[UNUSED_19482]
[UNUSED_19483]
[UNUSED_19484]
[UNUSED_19485]
[UNUSED_19486]
[UNUSED_19487]
[UNUSED_19488]
[UNUSED_19489]
[UNUSED_19490]
[UNUSED_19491]
[UNUSED_19492]
[UNUSED_19493]
[UNUSED_19494]
[UNUSED_19495]
[UNUSED_19496]
[UNUSED_19497]
[UNUSED_19498]
[UNUSED_19499]
[UNUSED_19500]
[UNUSED_19501]
[UNUSED_19502]
[UNUSED_19503]
[UNUSED_19504]
[UNUSED_19505]
[UNUSED_19506]
[UNUSED_19507]
[UNUSED_19508]
[UNUSED_19509]
[UNUSED_19510]
[UNUSED_19511]
[UNUSED_19512]
[UNUSED_19513]
[UNUSED_19514]
[UNUSED_19515]
[UNUSED_19516]
[UNUSED_19517]
[UNUSED_19518]
[UNUSED_19519]
[UNUSED_19520]
[UNUSED_19521]
[UNUSED_19522]
[UNUSED_19523]
[UNUSED_19524]
[UNUSED_19525]
[UNUSED_19526]
[UNUSED_19527]
[UNUSED_19528]
[UNUSED_19529]
[UNUSED_19530]
[UNUSED_19531]
[UNUSED_19532]
[UNUSED_19533]
[UNUSED_19534]
[UNUSED_19535]
[UNUSED_19536]
[UNUSED_19537]
[UNUSED_19538]
[UNUSED_19539]
[UNUSED_19540]
[UNUSED_19541]
[UNUSED_19542]
[UNUSED_19543]
[UNUSED_19544]
[UNUSED_19545]
[UNUSED_19546]
[UNUSED_19547]
[UNUSED_19548]
[UNUSED_19549]
[UNUSED_19550]
[UNUSED_19551]
[UNUSED_19552]
[UNUSED_19553]
[UNUSED_19554]
[UNUSED_19555]
[UNUSED_19556]
[UNUSED_19557]
[UNUSED_19558]
[UNUSED_19559]
[UNUSED_19560]
[UNUSED_19561]
[UNUSED_19562]
[UNUSED_19563]
[UNUSED_19564]
[UNUSED_19565]
[UNUSED_19566]
[UNUSED_19567]
[UNUSED_19568]
[UNUSED_19569]
[UNUSED_19570]
[UNUSED_19571]
[UNUSED_19572]
[UNUSED_19573]
[UNUSED_19574]
[UNUSED_19575]
[UNUSED_19576]
[UNUSED_19577]
[UNUSED_19578]
[UNUSED_19579]
[UNUSED_19580]
[UNUSED_19581]
[UNUSED_19582]
[UNUSED_19583]
[UNUSED_19584]
[UNUSED_19585]
[UNUSED_19586]
[UNUSED_19587]
[UNUSED_19588]
[UNUSED_19589]
[UNUSED_19590]
[UNUSED_19591]
[UNUSED_19592]
[UNUSED_19593]
[UNUSED_19594]
[UNUSED_19595]
[UNUSED_19596]
[UNUSED_19597]
[UNUSED_19598]
[UNUSED_19599]
[UNUSED_19600]
[UNUSED_19601]
[UNUSED_19602]
[UNUSED_19603]
[UNUSED_19604]
[UNUSED_19605]
[UNUSED_19606]
[UNUSED_19607]
[UNUSED_19608]
[UNUSED_19609]
[UNUSED_19610]
[UNUSED_19611]
[UNUSED_19612]
[UNUSED_19613]
[UNUSED_19614]
[UNUSED_19615]
[UNUSED_19616]
[UNUSED_19617]
[UNUSED_19618]
[UNUSED_19619]
[UNUSED_19620]
[UNUSED_19621]
[UNUSED_19622]
[UNUSED_19623]
[UNUSED_19624]
[UNUSED_19625]
[UNUSED_19626]
[UNUSED_19627]
[UNUSED_19628]
[UNUSED_19629]
[UNUSED_19630]
[UNUSED_19631]
[UNUSED_19632]
[UNUSED_19633]
[UNUSED_19634]
[UNUSED_19635]
[UNUSED_19636]
[UNUSED_19637]
[UNUSED_19638]
[UNUSED_19639]
[UNUSED_19640]
[UNUSED_19641]
[UNUSED_19642]
[UNUSED_19643]
[UNUSED_19644]
[UNUSED_19645]
[UNUSED_19646]
[UNUSED_19647]
[UNUSED_19648]
[UNUSED_19649]
[UNUSED_19650]
[UNUSED_19651]
[UNUSED_19652]
[UNUSED_19653]
[UNUSED_19654]
[UNUSED_19655]
[UNUSED_19656]
[UNUSED_19657]
[UNUSED_19658]
[UNUSED_19659]
[UNUSED_19660]
[UNUSED_19661]
[UNUSED_19662]
[UNUSED_19663]
[UNUSED_19664]
[UNUSED_19665]
[UNUSED_19666]
[UNUSED_19667]
[UNUSED_19668]
[UNUSED_19669]
[UNUSED_19670]
[UNUSED_19671]
[UNUSED_19672]
[UNUSED_19673]
[UNUSED_19674]
[UNUSED_19675]
[UNUSED_19676]
[UNUSED_19677]
[UNUSED_19678]
[UNUSED_19679]
[UNUSED_19680]
[UNUSED_19681]
[UNUSED_19682]
[UNUSED_19683]
[UNUSED_19684]
[UNUSED_19685]
[UNUSED_19686]
[UNUSED_19687]
[UNUSED_19688]
[UNUSED_19689]
[UNUSED_19690]
[UNUSED_19691]
[UNUSED_19692]
[UNUSED_19693]
[UNUSED_19694]
[UNUSED_19695]
[UNUSED_19696]
[UNUSED_19697]
[UNUSED_19698]
[UNUSED_19699]
[UNUSED_19700]
[UNUSED_19701]
[UNUSED_19702]
[UNUSED_19703]
[UNUSED_19704]
[UNUSED_19705]
[UNUSED_19706]
[UNUSED_19707]
[UNUSED_19708]
[UNUSED_19709]
[UNUSED_19710]
[UNUSED_19711]
[UNUSED_19712]
[UNUSED_19713]
[UNUSED_19714]
[UNUSED_19715]
[UNUSED_19716]
[UNUSED_19717]
[UNUSED_19718]
[UNUSED_19719]
[UNUSED_19720]
[UNUSED_19721]
[UNUSED_19722]
[UNUSED_19723]
[UNUSED_19724]
[UNUSED_19725]
[UNUSED_19726]
[UNUSED_19727]
[UNUSED_19728]
[UNUSED_19729]
[UNUSED_19730]
[UNUSED_19731]
[UNUSED_19732]
[UNUSED_19733]
[UNUSED_19734]
[UNUSED_19735]
[UNUSED_19736]
[UNUSED_19737]
[UNUSED_19738]
[UNUSED_19739]
[UNUSED_19740]
[UNUSED_19741]
[UNUSED_19742]
[UNUSED_19743]
[UNUSED_19744]
[UNUSED_19745]
[UNUSED_19746]
[UNUSED_19747]
[UNUSED_19748]
[UNUSED_19749]
[UNUSED_19750]
[UNUSED_19751]
[UNUSED_19752]
[UNUSED_19753]
[UNUSED_19754]
[UNUSED_19755]
[UNUSED_19756]
[UNUSED_19757]
[UNUSED_19758]
[UNUSED_19759]
[UNUSED_19760]
[UNUSED_19761]
[UNUSED_19762]
[UNUSED_19763]
[UNUSED_19764]
[UNUSED_19765]
[UNUSED_19766]
[UNUSED_19767]
[UNUSED_19768]
[UNUSED_19769]
[UNUSED_19770]
[UNUSED_19771]
[UNUSED_19772]
[UNUSED_19773]
[UNUSED_19774]
[UNUSED_19775]
[UNUSED_19776]
[UNUSED_19777]
[UNUSED_19778]
[UNUSED_19779]
[UNUSED_19780]
[UNUSED_19781]
[UNUSED_19782]
[UNUSED_19783]
[UNUSED_19784]
[UNUSED_19785]
[UNUSED_19786]
[UNUSED_19787]
[UNUSED_19788]
[UNUSED_19789]
[UNUSED_19790]
[UNUSED_19791]
[UNUSED_19792]
[UNUSED_19793]
[UNUSED_19794]
[UNUSED_19795]
[UNUSED_19796]
[UNUSED_19797]
[UNUSED_19798]
[UNUSED_19799]
[UNUSED_19800]
[UNUSED_19801]
[UNUSED_19802]
[UNUSED_19803]
[UNUSED_19804]
[UNUSED_19805]
[UNUSED_19806]
[UNUSED_19807]
[UNUSED_19808]
[UNUSED_19809]
[UNUSED_19810]
[UNUSED_19811]
[UNUSED_19812]
[UNUSED_19813]
[UNUSED_19814]
[UNUSED_19815]
[UNUSED_19816]
[UNUSED_19817]
[UNUSED_19818]
[UNUSED_19819]
[UNUSED_19820]
[UNUSED_19821]
[UNUSED_19822]
[UNUSED_19823]
[UNUSED_19824]
[UNUSED_19825]
[UNUSED_19826]
[UNUSED_19827]
[UNUSED_19828]
[UNUSED_19829]
[UNUSED_19830]
[UNUSED_19831]
[UNUSED_19832]
[UNUSED_19833]
[UNUSED_19834]
[UNUSED_19835]
[UNUSED_19836]
[UNUSED_19837]
[UNUSED_19838]
[UNUSED_19839]
[UNUSED_19840]
[UNUSED_19841]
[UNUSED_19842]
[UNUSED_19843]
[UNUSED_19844]
[UNUSED_19845]
[UNUSED_19846]
[UNUSED_19847]
[UNUSED_19848]
[UNUSED_19849]
[UNUSED_19850]
[UNUSED_19851]
[UNUSED_19852]
[UNUSED_19853]
[UNUSED_19854]
[UNUSED_19855]
[UNUSED_19856]
[UNUSED_19857]
[UNUSED_19858]
[UNUSED_19859]
[UNUSED_19860]
[UNUSED_19861]
[UNUSED_19862]
[UNUSED_19863]
[UNUSED_19864]
[UNUSED_19865]
[UNUSED_19866]
[UNUSED_19867]
[UNUSED_19868]
[UNUSED_19869]
[UNUSED_19870]
[UNUSED_19871]
[UNUSED_19872]
[UNUSED_19873]
[UNUSED_19874]
[UNUSED_19875]
[UNUSED_19876]
[UNUSED_19877]
[UNUSED_19878]
[UNUSED_19879]
[UNUSED_19880]
[UNUSED_19881]
[UNUSED_19882]
[UNUSED_19883]
[UNUSED_19884]
[UNUSED_19885]
[UNUSED_19886]
[UNUSED_19887]
[UNUSED_19888]
[UNUSED_19889]
[UNUSED_19890]
[UNUSED_19891]
[UNUSED_19892]
[UNUSED_19893]
[UNUSED_19894]
[UNUSED_19895]
[UNUSED_19896]
[UNUSED_19897]
[UNUSED_19898]
[UNUSED_19899]
[UNUSED_19900]
[UNUSED_19901]
[UNUSED_19902]
[UNUSED_19903]
[UNUSED_19904]
[UNUSED_19905]
[UNUSED_19906]
[UNUSED_19907]
[UNUSED_19908]
[UNUSED_19909]
[UNUSED_19910]
[UNUSED_19911]
[UNUSED_19912]
[UNUSED_19913]
[UNUSED_19914]
[UNUSED_19915]
[UNUSED_19916]
[UNUSED_19917]
[UNUSED_19918]
[UNUSED_19919]
[UNUSED_19920]
[UNUSED_19921]
[UNUSED_19922]
[UNUSED_19923]
[UNUSED_19924]
[UNUSED_19925]
[UNUSED_19926]
[UNUSED_19927]
[UNUSED_19928]
[UNUSED_19929]
[UNUSED_19930]
[UNUSED_19931]
[UNUSED_19932]
[UNUSED_19933]
[UNUSED_19934]
[UNUSED_19935]
[UNUSED_19936]
[UNUSED_19937]
[UNUSED_19938]
[UNUSED_19939]
[UNUSED_19940]
[UNUSED_19941]
[UNUSED_19942]
[UNUSED_19943]
[UNUSED_19944]
[UNUSED_19945]
[UNUSED_19946]
[UNUSED_19947]
[UNUSED_19948]
[UNUSED_19949]
[UNUSED_19950]
[UNUSED_19951]
[UNUSED_19952]
[UNUSED_19953]
[UNUSED_19954]
[UNUSED_19955]
[UNUSED_19956]
[UNUSED_19957]
[UNUSED_19958]
[UNUSED_19959]
[UNUSED_19960]
[UNUSED_19961]
[UNUSED_19962]
[UNUSED_19963]
[UNUSED_19964]
[UNUSED_19965]
[UNUSED_19966]
[UNUSED_19967]
[UNUSED_19968]
[UNUSED_19969]
[UNUSED_19970]
[UNUSED_19971]
[UNUSED_19972]
[UNUSED_19973]
[UNUSED_19974]
[UNUSED_19975]
[UNUSED_19976]
[UNUSED_19977]
[UNUSED_19978]
[UNUSED_19979]
[UNUSED_19980]
[UNUSED_19981]
[UNUSED_19982]
[UNUSED_19983]
[UNUSED_19984]
[UNUSED_19985]
[UNUSED_19986]
[UNUSED_19987]
[UNUSED_19988]
[UNUSED_19989]
[UNUSED_19990]
[UNUSED_19991]
[UNUSED_19992]
[UNUSED_19993]
[UNUSED_19994]
[UNUSED_19995]
[UNUSED_19996]
[UNUSED_19997]
[UNUSED_19998]
[UNUSED_19999]
[UNUSED_20000]
[UNUSED_20001]
[UNUSED_20002]
[UNUSED_20003]
[UNUSED_20004]
[UNUSED_20005]
[UNUSED_20006]
[UNUSED_20007]
[UNUSED_20008]
[UNUSED_20009]
[UNUSED_20010]
[UNUSED_20011]
[UNUSED_20012]
[UNUSED_20013]
[UNUSED_20014]
[UNUSED_20015]
[UNUSED_20016]
[UNUSED_20017]
[UNUSED_20018]
[UNUSED_20019]
[UNUSED_20020]
[UNUSED_20021]
[UNUSED_20022]
[UNUSED_20023]
[UNUSED_20024]
[UNUSED_20025]
[UNUSED_20026]
[UNUSED_20027]
[UNUSED_20028]
[UNUSED_20029]
[UNUSED_20030]
[UNUSED_20031]
[UNUSED_20032]
[UNUSED_20033]
[UNUSED_20034]
[UNUSED_20035]
[UNUSED_20036]
[UNUSED_20037]
[UNUSED_20038]
[UNUSED_20039]
[UNUSED_20040]
[UNUSED_20041]
[UNUSED_20042]
[UNUSED_20043]
[UNUSED_20044]
[UNUSED_20045]
[UNUSED_20046]
[UNUSED_20047]
[UNUSED_20048]
[UNUSED_20049]
[UNUSED_20050]
[UNUSED_20051]
[UNUSED_20052]
[UNUSED_20053]
[UNUSED_20054]
[UNUSED_20055]
[UNUSED_20056]
[UNUSED_20057]
[UNUSED_20058]
[UNUSED_20059]
[UNUSED_20060]
[UNUSED_20061]
[UNUSED_20062]
[UNUSED_20063]
[UNUSED_20064]
[UNUSED_20065]
[UNUSED_20066]
[UNUSED_20067]
[UNUSED_20068]
[UNUSED_20069]
[UNUSED_20070]
[UNUSED_20071]
[UNUSED_20072]
[UNUSED_20073]
[UNUSED_20074]
[UNUSED_20075]
[UNUSED_20076]
[UNUSED_20077]
[UNUSED_20078]
[UNUSED_20079]
[UNUSED_20080]
[UNUSED_20081]
[UNUSED_20082]
[UNUSED_20083]
[UNUSED_20084]
[UNUSED_20085]
[UNUSED_20086]
[UNUSED_20087]
[UNUSED_20088]
[UNUSED_20089]
[UNUSED_20090]
[UNUSED_20091]
[UNUSED_20092]
[UNUSED_20093]
[UNUSED_20094]
[UNUSED_20095]
[UNUSED_20096]
[UNUSED_20097]
[UNUSED_20098]
[UNUSED_20099]
[UNUSED_20100]
[UNUSED_20101]
[UNUSED_20102]
[UNUSED_20103]
[UNUSED_20104]
[UNUSED_20105]
[UNUSED_20106]
[UNUSED_20107]
[UNUSED_20108]
[UNUSED_20109]
[UNUSED_20110]
[UNUSED_20111]
[UNUSED_20112]
[UNUSED_20113]
[UNUSED_20114]
[UNUSED_20115]
[UNUSED_20116]
[UNUSED_20117]
[UNUSED_20118]
[UNUSED_20119]
[UNUSED_20120]
[UNUSED_20121]
[UNUSED_20122]
[UNUSED_20123]
[UNUSED_20124]
[UNUSED_20125]
[UNUSED_20126]
[UNUSED_20127]
[UNUSED_20128]
[UNUSED_20129]
[UNUSED_20130]
[UNUSED_20131]
[UNUSED_20132]
[UNUSED_20133]
[UNUSED_20134]
[UNUSED_20135]
[UNUSED_20136]
[UNUSED_20137]
[UNUSED_20138]
[UNUSED_20139]
[UNUSED_20140]
[UNUSED_20141]
[UNUSED_20142]
[UNUSED_20143]
[UNUSED_20144]
[UNUSED_20145]
[UNUSED_20146]
[UNUSED_20147]
[UNUSED_20148]
[UNUSED_20149]
[UNUSED_20150]
[UNUSED_20151]
[UNUSED_20152]
[UNUSED_20153]
[UNUSED_20154]
[UNUSED_20155]
[UNUSED_20156]
[UNUSED_20157]
[UNUSED_20158]
[UNUSED_20159]
[UNUSED_20160]
[UNUSED_20161]
[UNUSED_20162]
[UNUSED_20163]
[UNUSED_20164]
[UNUSED_20165]
[UNUSED_20166]
[UNUSED_20167]
[UNUSED_20168]
[UNUSED_20169]
[UNUSED_20170]
[UNUSED_20171]
[UNUSED_20172]
[UNUSED_20173]
[UNUSED_20174]
[UNUSED_20175]
[UNUSED_20176]
[UNUSED_20177]
[UNUSED_20178]
[UNUSED_20179]
[UNUSED_20180]
[UNUSED_20181]
[UNUSED_20182]
[UNUSED_20183]
[UNUSED_20184]
[UNUSED_20185]
[UNUSED_20186]
[UNUSED_20187]
[UNUSED_20188]
[UNUSED_20189]
[UNUSED_20190]
[UNUSED_20191]
[UNUSED_20192]
[UNUSED_20193]
[UNUSED_20194]
[UNUSED_20195]
[UNUSED_20196]
[UNUSED_20197]
[UNUSED_20198]
[UNUSED_20199]
[UNUSED_20200]
[UNUSED_20201]
[UNUSED_20202]
[UNUSED_20203]
[UNUSED_20204]
[UNUSED_20205]
[UNUSED_20206]
[UNUSED_20207]
[UNUSED_20208]
[UNUSED_20209]
[UNUSED_20210]
[UNUSED_20211]
[UNUSED_20212]
[UNUSED_20213]
[UNUSED_20214]
[UNUSED_20215]
[UNUSED_20216]
[UNUSED_20217]
[UNUSED_20218]
[UNUSED_20219]
[UNUSED_20220]
[UNUSED_20221]
[UNUSED_20222]
[UNUSED_20223]
[UNUSED_20224]
[UNUSED_20225]
[UNUSED_20226]
[UNUSED_20227]
[UNUSED_20228]
[UNUSED_20229]
[UNUSED_20230]
[UNUSED_20231]
[UNUSED_20232]
[UNUSED_20233]
[UNUSED_20234]
[UNUSED_20235]
[UNUSED_20236]
[UNUSED_20237]
[UNUSED_20238]
[UNUSED_20239]
[UNUSED_20240]
[UNUSED_20241]
[UNUSED_20242]
[UNUSED_20243]
[UNUSED_20244]
[UNUSED_20245]
[UNUSED_20246]
[UNUSED_20247]
[UNUSED_20248]
[UNUSED_20249]
[UNUSED_20250]
[UNUSED_20251]
[UNUSED_20252]
[UNUSED_20253]
[UNUSED_20254]
[UNUSED_20255]
[UNUSED_20256]
[UNUSED_20257]
[UNUSED_20258]
[UNUSED_20259]
[UNUSED_20260]
[UNUSED_20261]
[UNUSED_20262]
[UNUSED_20263]
[UNUSED_20264]
[UNUSED_20265]
[UNUSED_20266]
[UNUSED_20267]
[UNUSED_20268]
[UNUSED_20269]
[UNUSED_20270]
[UNUSED_20271]
[UNUSED_20272]
[UNUSED_20273]
[UNUSED_20274]
[UNUSED_20275]
[UNUSED_20276]
[UNUSED_20277]
[UNUSED_20278]
[UNUSED_20279]
[UNUSED_20280]
[UNUSED_20281]
[UNUSED_20282]
[UNUSED_20283]
[UNUSED_20284]
[UNUSED_20285]
[UNUSED_20286]
[UNUSED_20287]
[UNUSED_20288]
[UNUSED_20289]
[UNUSED_20290]
[UNUSED_20291]
[UNUSED_20292]
[UNUSED_20293]
[UNUSED_20294]
[UNUSED_20295]
[UNUSED_20296]
[UNUSED_20297]
[UNUSED_20298]
[UNUSED_20299]
[UNUSED_20300]
[UNUSED_20301]
[UNUSED_20302]
[UNUSED_20303]
[UNUSED_20304]
[UNUSED_20305]
[UNUSED_20306]
[UNUSED_20307]
[UNUSED_20308]
[UNUSED_20309]
[UNUSED_20310]
[UNUSED_20311]
[UNUSED_20312]
[UNUSED_20313]
[UNUSED_20314]
[UNUSED_20315]
[UNUSED_20316]
[UNUSED_20317]
[UNUSED_20318]
[UNUSED_20319]
[UNUSED_20320]
[UNUSED_20321]
[UNUSED_20322]
[UNUSED_20323]
[UNUSED_20324]
[UNUSED_20325]
[UNUSED_20326]
[UNUSED_20327]
[UNUSED_20328]
[UNUSED_20329]
[UNUSED_20330]
[UNUSED_20331]
[UNUSED_20332]
[UNUSED_20333]
[UNUSED_20334]
[UNUSED_20335]
[UNUSED_20336]
[UNUSED_20337]
[UNUSED_20338]
[UNUSED_20339]
[UNUSED_20340]
[UNUSED_20341]
[UNUSED_20342]
[UNUSED_20343]
[UNUSED_20344]
[UNUSED_20345]
[UNUSED_20346]
[UNUSED_20347]
[UNUSED_20348]
[UNUSED_20349]
[UNUSED_20350]
[UNUSED_20351]
[UNUSED_20352]
[UNUSED_20353]
[UNUSED_20354]
[UNUSED_20355]
[UNUSED_20356]
[UNUSED_20357]
[UNUSED_20358]
[UNUSED_20359]
[UNUSED_20360]
[UNUSED_20361]
[UNUSED_20362]
[UNUSED_20363]
[UNUSED_20364]
[UNUSED_20365]
[UNUSED_20366]
[UNUSED_20367]
[UNUSED_20368]
[UNUSED_20369]
[UNUSED_20370]
[UNUSED_20371]
[UNUSED_20372]
[UNUSED_20373]
[UNUSED_20374]
[UNUSED_20375]
[UNUSED_20376]
[UNUSED_20377]
[UNUSED_20378]
[UNUSED_20379]
[UNUSED_20380]
[UNUSED_20381]
[UNUSED_20382]
[UNUSED_20383]
[UNUSED_20384]
[UNUSED_20385]
[UNUSED_20386]
[UNUSED_20387]
[UNUSED_20388]
[UNUSED_20389]
[UNUSED_20390]
[UNUSED_20391]
[UNUSED_20392]
[UNUSED_20393]
[UNUSED_20394]
[UNUSED_20395]
[UNUSED_20396]
[UNUSED_20397]
[UNUSED_20398]
[UNUSED_20399]
[UNUSED_20400]
[UNUSED_20401]
[UNUSED_20402]
[UNUSED_20403]
[UNUSED_20404]
[UNUSED_20405]
[UNUSED_20406]
[UNUSED_20407]
[UNUSED_20408]
[UNUSED_20409]
[UNUSED_20410]
[UNUSED_20411]
[UNUSED_20412]
[UNUSED_20413]
[UNUSED_20414]
[UNUSED_20415]
[UNUSED_20416]
[UNUSED_20417]
[UNUSED_20418]
[UNUSED_20419]
[UNUSED_20420]
[UNUSED_20421]
[UNUSED_20422]
[UNUSED_20423]
[UNUSED_20424]
[UNUSED_20425]
[UNUSED_20426]
[UNUSED_20427]
[UNUSED_20428]
[UNUSED_20429]
[UNUSED_20430]
[UNUSED_20431]
[UNUSED_20432]
[UNUSED_20433]
[UNUSED_20434]
[UNUSED_20435]
[UNUSED_20436]
[UNUSED_20437]
[UNUSED_20438]
[UNUSED_20439]
[UNUSED_20440]
[UNUSED_20441]
[UNUSED_20442]
[UNUSED_20443]
[UNUSED_20444]
[UNUSED_20445]
[UNUSED_20446]
[UNUSED_20447]
[UNUSED_20448]
[UNUSED_20449]
[UNUSED_20450]
[UNUSED_20451]
[UNUSED_20452]
[UNUSED_20453]
[UNUSED_20454]
[UNUSED_20455]
[UNUSED_20456]
[UNUSED_20457]
[UNUSED_20458]
[UNUSED_20459]
[UNUSED_20460]
[UNUSED_20461]
[UNUSED_20462]
[UNUSED_20463]
[UNUSED_20464]
[UNUSED_20465]
[UNUSED_20466]
[UNUSED_20467]
[UNUSED_20468]
[UNUSED_20469]
[UNUSED_20470]
[UNUSED_20471]
[UNUSED_20472]
[UNUSED_20473]
[UNUSED_20474]
[UNUSED_20475]
[UNUSED_20476]
[UNUSED_20477]
[UNUSED_20478]
[UNUSED_20479]
[UNUSED_20480]
[UNUSED_20481]
[UNUSED_20482]
[UNUSED_20483]
[UNUSED_20484]
[UNUSED_20485]
[UNUSED_20486]
[UNUSED_20487]
[UNUSED_20488]
[UNUSED_20489]
[UNUSED_20490]
[UNUSED_20491]
[UNUSED_20492]
[UNUSED_20493]
[UNUSED_20494]
[UNUSED_20495]
[UNUSED_20496]
[UNUSED_20497]
[UNUSED_20498]
[UNUSED_20499]
[UNUSED_20500]
[UNUSED_20501]
[UNUSED_20502]
[UNUSED_20503]
[UNUSED_20504]
[UNUSED_20505]
[UNUSED_20506]
[UNUSED_20507]
[UNUSED_20508]
[UNUSED_20509]
[UNUSED_20510]
[UNUSED_20511]
[UNUSED_20512]
[UNUSED_20513]
[UNUSED_20514]
[UNUSED_20515]
[UNUSED_20516]
[UNUSED_20517]
[UNUSED_20518]
[UNUSED_20519]
[UNUSED_20520]
[UNUSED_20521]
[UNUSED_20522]
[UNUSED_20523]
[UNUSED_20524]
[UNUSED_20525]
[UNUSED_20526]
[UNUSED_20527]
[UNUSED_20528]
[UNUSED_20529]
[UNUSED_20530]
[UNUSED_20531]
[UNUSED_20532]
[UNUSED_20533]
[UNUSED_20534]
[UNUSED_20535]
[UNUSED_20536]
[UNUSED_20537]
[UNUSED_20538]
[UNUSED_20539]
[UNUSED_20540]
[UNUSED_20541]
[UNUSED_20542]
[UNUSED_20543]
[UNUSED_20544]
[UNUSED_20545]
[UNUSED_20546]
[UNUSED_20547]
[UNUSED_20548]
[UNUSED_20549]
[UNUSED_20550]
[UNUSED_20551]
[UNUSED_20552]
[UNUSED_20553]
[UNUSED_20554]
[UNUSED_20555]
[UNUSED_20556]
[UNUSED_20557]
[UNUSED_20558]
[UNUSED_20559]
[UNUSED_20560]
[UNUSED_20561]
[UNUSED_20562]
[UNUSED_20563]
[UNUSED_20564]
[UNUSED_20565]
[UNUSED_20566]
[UNUSED_20567]
[UNUSED_20568]
[UNUSED_20569]
[UNUSED_20570]
[UNUSED_20571]
[UNUSED_20572]
[UNUSED_20573]
[UNUSED_20574]
[UNUSED_20575]
[UNUSED_20576]
[UNUSED_20577]
[UNUSED_20578]
[UNUSED_20579]
[UNUSED_20580]
[UNUSED_20581]
[UNUSED_20582]
[UNUSED_20583]
[UNUSED_20584]
[UNUSED_20585]
[UNUSED_20586]
[UNUSED_20587]
[UNUSED_20588]
[UNUSED_20589]
[UNUSED_20590]
[UNUSED_20591]
[UNUSED_20592]
[UNUSED_20593]
[UNUSED_20594]
[UNUSED_20595]
[UNUSED_20596]
[UNUSED_20597]
[UNUSED_20598]
[UNUSED_20599]
[UNUSED_20600]
[UNUSED_20601]
[UNUSED_20602]
[UNUSED_20603]
[UNUSED_20604]
[UNUSED_20605]
[UNUSED_20606]
[UNUSED_20607]
[UNUSED_20608]
[UNUSED_20609]
[UNUSED_20610]
[UNUSED_20611]
[UNUSED_20612]
[UNUSED_20613]
[UNUSED_20614]
[UNUSED_20615]
[UNUSED_20616]
[UNUSED_20617]
[UNUSED_20618]
[UNUSED_20619]
[UNUSED_20620]
[UNUSED_20621]
[UNUSED_20622]
[UNUSED_20623]
[UNUSED_20624]
[UNUSED_20625]
[UNUSED_20626]
[UNUSED_20627]
[UNUSED_20628]
[UNUSED_20629]
[UNUSED_20630]
[UNUSED_20631]
[UNUSED_20632]
[UNUSED_20633]
[UNUSED_20634]
[UNUSED_20635]
[UNUSED_20636]
[UNUSED_20637]
[UNUSED_20638]
[UNUSED_20639]
[UNUSED_20640]
[UNUSED_20641]
[UNUSED_20642]
[UNUSED_20643]
[UNUSED_20644]
[UNUSED_20645]
[UNUSED_20646]
[UNUSED_20647]
[UNUSED_20648]
[UNUSED_20649]
[UNUSED_20650]
[UNUSED_20651]
[UNUSED_20652]
[UNUSED_20653]
[UNUSED_20654]
[UNUSED_20655]
[UNUSED_20656]
[UNUSED_20657]
[UNUSED_20658]
[UNUSED_20659]
[UNUSED_20660]
[UNUSED_20661]
[UNUSED_20662]
[UNUSED_20663]
[UNUSED_20664]
[UNUSED_20665]
[UNUSED_20666]
[UNUSED_20667]
[UNUSED_20668]
[UNUSED_20669]
[UNUSED_20670]
[UNUSED_20671]
[UNUSED_20672]
[UNUSED_20673]
[UNUSED_20674]
[UNUSED_20675]
[UNUSED_20676]
[UNUSED_20677]
[UNUSED_20678]
[UNUSED_20679]
[UNUSED_20680]
[UNUSED_20681]
[UNUSED_20682]
[UNUSED_20683]
[UNUSED_20684]
[UNUSED_20685]
[UNUSED_20686]
[UNUSED_20687]
[UNUSED_20688]
[UNUSED_20689]
[UNUSED_20690]
[UNUSED_20691]
[UNUSED_20692]
[UNUSED_20693]
[UNUSED_20694]
[UNUSED_20695]
[UNUSED_20696]
[UNUSED_20697]
[UNUSED_20698]
[UNUSED_20699]
[UNUSED_20700]
[UNUSED_20701]
[UNUSED_20702]
[UNUSED_20703]
[UNUSED_20704]
[UNUSED_20705]
[UNUSED_20706]
[UNUSED_20707]
[UNUSED_20708]
[UNUSED_20709]
[UNUSED_20710]
[UNUSED_20711]
[UNUSED_20712]
[UNUSED_20713]
[UNUSED_20714]
[UNUSED_20715]
[UNUSED_20716]
[UNUSED_20717]
[UNUSED_20718]
[UNUSED_20719]
[UNUSED_20720]
[UNUSED_20721]
[UNUSED_20722]
[UNUSED_20723]
[UNUSED_20724]
[UNUSED_20725]
[UNUSED_20726]
[UNUSED_20727]
[UNUSED_20728]
[UNUSED_20729]
[UNUSED_20730]
[UNUSED_20731]
[UNUSED_20732]
[UNUSED_20733]
[UNUSED_20734]
[UNUSED_20735]
[UNUSED_20736]
[UNUSED_20737]
[UNUSED_20738]
[UNUSED_20739]
[UNUSED_20740]
[UNUSED_20741]
[UNUSED_20742]
[UNUSED_20743]
[UNUSED_20744]
[UNUSED_20745]
[UNUSED_20746]
[UNUSED_20747]
[UNUSED_20748]
[UNUSED_20749]
[UNUSED_20750]
[UNUSED_20751]
[UNUSED_20752]
[UNUSED_20753]
[UNUSED_20754]
[UNUSED_20755]
[UNUSED_20756]
[UNUSED_20757]
[UNUSED_20758]
[UNUSED_20759]
[UNUSED_20760]
[UNUSED_20761]
[UNUSED_20762]
[UNUSED_20763]
[UNUSED_20764]
[UNUSED_20765]
[UNUSED_20766]
[UNUSED_20767]
[UNUSED_20768]
[UNUSED_20769]
[UNUSED_20770]
[UNUSED_20771]
[UNUSED_20772]
[UNUSED_20773]
[UNUSED_20774]
[UNUSED_20775]
[UNUSED_20776]
[UNUSED_20777]
[UNUSED_20778]
[UNUSED_20779]
[UNUSED_20780]
[UNUSED_20781]
[UNUSED_20782]
[UNUSED_20783]
[UNUSED_20784]
[UNUSED_20785]
[UNUSED_20786]
[UNUSED_20787]
[UNUSED_20788]
[UNUSED_20789]
[UNUSED_20790]
[UNUSED_20791]
[UNUSED_20792]
[UNUSED_20793]
[UNUSED_20794]
[UNUSED_20795]
[UNUSED_20796]
[UNUSED_20797]
[UNUSED_20798]
[UNUSED_20799]
[UNUSED_20800]
[UNUSED_20801]
[UNUSED_20802]
[UNUSED_20803]
[UNUSED_20804]
[UNUSED_20805]
[UNUSED_20806]
[UNUSED_20807]
[UNUSED_20808]
[UNUSED_20809]
[UNUSED_20810]
[UNUSED_20811]
[UNUSED_20812]
[UNUSED_20813]
[UNUSED_20814]
[UNUSED_20815]
[UNUSED_20816]
[UNUSED_20817]
[UNUSED_20818]
[UNUSED_20819]
[UNUSED_20820]
[UNUSED_20821]
[UNUSED_20822]
[UNUSED_20823]
[UNUSED_20824]
[UNUSED_20825]
[UNUSED_20826]
[UNUSED_20827]
[UNUSED_20828]
[UNUSED_20829]
[UNUSED_20830]
[UNUSED_20831]
[UNUSED_20832]
[UNUSED_20833]
[UNUSED_20834]
[UNUSED_20835]
[UNUSED_20836]
[UNUSED_20837]
[UNUSED_20838]
[UNUSED_20839]
[UNUSED_20840]
[UNUSED_20841]
[UNUSED_20842]
[UNUSED_20843]
[UNUSED_20844]
[UNUSED_20845]
[UNUSED_20846]
[UNUSED_20847]
[UNUSED_20848]
[UNUSED_20849]
[UNUSED_20850]
[UNUSED_20851]
[UNUSED_20852]
[UNUSED_20853]
[UNUSED_20854]
[UNUSED_20855]
[UNUSED_20856]
[UNUSED_20857]
[UNUSED_20858]
[UNUSED_20859]
[UNUSED_20860]
[UNUSED_20861]
[UNUSED_20862]
[UNUSED_20863]
[UNUSED_20864]
[UNUSED_20865]
[UNUSED_20866]
[UNUSED_20867]
[UNUSED_20868]
[UNUSED_20869]
[UNUSED_20870]
[UNUSED_20871]
[UNUSED_20872]
[UNUSED_20873]
[UNUSED_20874]
[UNUSED_20875]
[UNUSED_20876]
[UNUSED_20877]
[UNUSED_20878]
[UNUSED_20879]
[UNUSED_20880]
[UNUSED_20881]
[UNUSED_20882]
[UNUSED_20883]
[UNUSED_20884]
[UNUSED_20885]
[UNUSED_20886]
[UNUSED_20887]
[UNUSED_20888]
[UNUSED_20889]
[UNUSED_20890]
[UNUSED_20891]
[UNUSED_20892]
[UNUSED_20893]
[UNUSED_20894]
[UNUSED_20895]
[UNUSED_20896]
[UNUSED_20897]
[UNUSED_20898]
[UNUSED_20899]
[UNUSED_20900]
[UNUSED_20901]
[UNUSED_20902]
[UNUSED_20903]
[UNUSED_20904]
[UNUSED_20905]
[UNUSED_20906]
[UNUSED_20907]
[UNUSED_20908]
[UNUSED_20909]
[UNUSED_20910]
[UNUSED_20911]
[UNUSED_20912]
[UNUSED_20913]
[UNUSED_20914]
[UNUSED_20915]
[UNUSED_20916]
[UNUSED_20917]
[UNUSED_20918]
[UNUSED_20919]
[UNUSED_20920]
[UNUSED_20921]
[UNUSED_20922]
[UNUSED_20923]
[UNUSED_20924]
[UNUSED_20925]
[UNUSED_20926]
[UNUSED_20927]
[UNUSED_20928]
[UNUSED_20929]
[UNUSED_20930]
[UNUSED_20931]
[UNUSED_20932]
[UNUSED_20933]
[UNUSED_20934]
[UNUSED_20935]
[UNUSED_20936]
[UNUSED_20937]
[UNUSED_20938]
[UNUSED_20939]
[UNUSED_20940]
[UNUSED_20941]
[UNUSED_20942]
[UNUSED_20943]
[UNUSED_20944]
[UNUSED_20945]
[UNUSED_20946]
[UNUSED_20947]
[UNUSED_20948]
[UNUSED_20949]
[UNUSED_20950]
[UNUSED_20951]
[UNUSED_20952]
[UNUSED_20953]
[UNUSED_20954]
[UNUSED_20955]
[UNUSED_20956]
[UNUSED_20957]
[UNUSED_20958]
[UNUSED_20959]
[UNUSED_20960]
[UNUSED_20961]
[UNUSED_20962]
[UNUSED_20963]
[UNUSED_20964]
[UNUSED_20965]
[UNUSED_20966]
[UNUSED_20967]
[UNUSED_20968]
[UNUSED_20969]
[UNUSED_20970]
[UNUSED_20971]
[UNUSED_20972]
[UNUSED_20973]
[UNUSED_20974]
[UNUSED_20975]
[UNUSED_20976]
[UNUSED_20977]
[UNUSED_20978]
[UNUSED_20979]
[UNUSED_20980]
[UNUSED_20981]
[UNUSED_20982]
[UNUSED_20983]
[UNUSED_20984]
[UNUSED_20985]
[UNUSED_20986]
[UNUSED_20987]
[UNUSED_20988]
[UNUSED_20989]
[UNUSED_20990]
[UNUSED_20991]
[UNUSED_20992]
[UNUSED_20993]
[UNUSED_20994]
[UNUSED_20995]
[UNUSED_20996]
[UNUSED_20997]
[UNUSED_20998]
[UNUSED_20999]
[UNUSED_21000]
[UNUSED_21001]
[UNUSED_21002]
[UNUSED_21003]
[UNUSED_21004]
[UNUSED_21005]
[UNUSED_21006]
[UNUSED_21007]
[UNUSED_21008]
[UNUSED_21009]
[UNUSED_21010]
[UNUSED_21011]
[UNUSED_21012]
[UNUSED_21013]
[UNUSED_21014]
[UNUSED_21015]
[UNUSED_21016]
[UNUSED_21017]
[UNUSED_21018]
[UNUSED_21019]
[UNUSED_21020]
[UNUSED_21021]
[UNUSED_21022]
[UNUSED_21023]
[UNUSED_21024]
[UNUSED_21025]
[UNUSED_21026]
[UNUSED_21027]
[UNUSED_21028]
[UNUSED_21029]
[UNUSED_21030]
[UNUSED_21031]
[UNUSED_21032]
[UNUSED_21033]
[UNUSED_21034]
[UNUSED_21035]
[UNUSED_21036]
[UNUSED_21037]
[UNUSED_21038]
[UNUSED_21039]
[UNUSED_21040]
[UNUSED_21041]
[UNUSED_21042]
[UNUSED_21043]
[UNUSED_21044]
[UNUSED_21045]
[UNUSED_21046]
[UNUSED_21047]
[UNUSED_21048]
[UNUSED_21049]
[UNUSED_21050]
[UNUSED_21051]
[UNUSED_21052]
[UNUSED_21053]
[UNUSED_21054]
[UNUSED_21055]
[UNUSED_21056]
[UNUSED_21057]
[UNUSED_21058]
[UNUSED_21059]
[UNUSED_21060]
[UNUSED_21061]
[UNUSED_21062]
[UNUSED_21063]
[UNUSED_21064]
[UNUSED_21065]
[UNUSED_21066]
[UNUSED_21067]
[UNUSED_21068]
[UNUSED_21069]
[UNUSED_21070]
[UNUSED_21071]
[UNUSED_21072]
[UNUSED_21073]
[UNUSED_21074]
[UNUSED_21075]
[UNUSED_21076]
[UNUSED_21077]
[UNUSED_21078]
[UNUSED_21079]
[UNUSED_21080]
[UNUSED_21081]
[UNUSED_21082]
[UNUSED_21083]
[UNUSED_21084]
[UNUSED_21085]
[UNUSED_21086]
[UNUSED_21087]
[UNUSED_21088]
[UNUSED_21089]
[UNUSED_21090]
[UNUSED_21091]
[UNUSED_21092]
[UNUSED_21093]
[UNUSED_21094]
[UNUSED_21095]
[UNUSED_21096]
[UNUSED_21097]
[UNUSED_21098]
[UNUSED_21099]
[UNUSED_21100]
[UNUSED_21101]
[UNUSED_21102]
[UNUSED_21103]
[UNUSED_21104]
[UNUSED_21105]
[UNUSED_21106]
[UNUSED_21107]
[UNUSED_21108]
[UNUSED_21109]
[UNUSED_21110]
[UNUSED_21111]
[UNUSED_21112]
[UNUSED_21113]
[UNUSED_21114]
[UNUSED_21115]
[UNUSED_21116]
[UNUSED_21117]
[UNUSED_21118]
[UNUSED_21119]
[UNUSED_21120]
[UNUSED_21121]
[UNUSED_21122]
[UNUSED_21123]
[UNUSED_21124]
[UNUSED_21125]
[UNUSED_21126]
[UNUSED_21127]
[UNUSED_21128]
[UNUSED_21129]
[UNUSED_21130]
[UNUSED_21131]
[UNUSED_21132]
[UNUSED_21133]
[UNUSED_21134]
[UNUSED_21135]
[UNUSED_21136]
[UNUSED_21137]
[UNUSED_21138]
[UNUSED_21139]
[UNUSED_21140]
[UNUSED_21141]
[UNUSED_21142]
[UNUSED_21143]
[UNUSED_21144]
[UNUSED_21145]
[UNUSED_21146]
[UNUSED_21147]
[UNUSED_21148]
[UNUSED_21149]
[UNUSED_21150]
[UNUSED_21151]
[UNUSED_21152]
[UNUSED_21153]
[UNUSED_21154]
[UNUSED_21155]
[UNUSED_21156]
[UNUSED_21157]
[UNUSED_21158]
[UNUSED_21159]
[UNUSED_21160]
[UNUSED_21161]
[UNUSED_21162]
[UNUSED_21163]
[UNUSED_21164]
[UNUSED_21165]
[UNUSED_21166]
[UNUSED_21167]
[UNUSED_21168]
[UNUSED_21169]
[UNUSED_21170]
[UNUSED_21171]
[UNUSED_21172]
[UNUSED_21173]
[UNUSED_21174]
[UNUSED_21175]
[UNUSED_21176]
[UNUSED_21177]
[UNUSED_21178]
[UNUSED_21179]
[UNUSED_21180]
[UNUSED_21181]
[UNUSED_21182]
[UNUSED_21183]
[UNUSED_21184]
[UNUSED_21185]
[UNUSED_21186]
[UNUSED_21187]
[UNUSED_21188]
[UNUSED_21189]
[UNUSED_21190]
[UNUSED_21191]
[UNUSED_21192]
[UNUSED_21193]
[UNUSED_21194]
[UNUSED_21195]
[UNUSED_21196]
[UNUSED_21197]
[UNUSED_21198]
[UNUSED_21199]
[UNUSED_21200]
[UNUSED_21201]
[UNUSED_21202]
[UNUSED_21203]
[UNUSED_21204]
[UNUSED_21205]
[UNUSED_21206]
[UNUSED_21207]
[UNUSED_21208]
[UNUSED_21209]
[UNUSED_21210]
[UNUSED_21211]
[UNUSED_21212]
[UNUSED_21213]
[UNUSED_21214]
[UNUSED_21215]
[UNUSED_21216]
[UNUSED_21217]
[UNUSED_21218]
[UNUSED_21219]
[UNUSED_21220]
[UNUSED_21221]
[UNUSED_21222]
[UNUSED_21223]
[UNUSED_21224]
[UNUSED_21225]
[UNUSED_21226]
[UNUSED_21227]
[UNUSED_21228]
[UNUSED_21229]
[UNUSED_21230]
[UNUSED_21231]
[UNUSED_21232]
[UNUSED_21233]
[UNUSED_21234]
[UNUSED_21235]
[UNUSED_21236]
[UNUSED_21237]
[UNUSED_21238]
[UNUSED_21239]
[UNUSED_21240]
[UNUSED_21241]
[UNUSED_21242]
[UNUSED_21243]
[UNUSED_21244]
[UNUSED_21245]
[UNUSED_21246]
[UNUSED_21247]
[UNUSED_21248]
[UNUSED_21249]
[UNUSED_21250]
[UNUSED_21251]
[UNUSED_21252]
[UNUSED_21253]
[UNUSED_21254]
[UNUSED_21255]
[UNUSED_21256]
[UNUSED_21257]
[UNUSED_21258]
[UNUSED_21259]
[UNUSED_21260]
[UNUSED_21261]
[UNUSED_21262]
[UNUSED_21263]
[UNUSED_21264]
[UNUSED_21265]
[UNUSED_21266]
[UNUSED_21267]
[UNUSED_21268]
[UNUSED_21269]
[UNUSED_21270]
[UNUSED_21271]
[UNUSED_21272]
[UNUSED_21273]
[UNUSED_21274]
[UNUSED_21275]
[UNUSED_21276]
[UNUSED_21277]
[UNUSED_21278]
[UNUSED_21279]
[UNUSED_21280]
[UNUSED_21281]
[UNUSED_21282]
[UNUSED_21283]
[UNUSED_21284]
[UNUSED_21285]
[UNUSED_21286]
[UNUSED_21287]
[UNUSED_21288]
[UNUSED_21289]
[UNUSED_21290]
[UNUSED_21291]
[UNUSED_21292]
[UNUSED_21293]
[UNUSED_21294]
[UNUSED_21295]
[UNUSED_21296]
[UNUSED_21297]
[UNUSED_21298]
[UNUSED_21299]
[UNUSED_21300]
[UNUSED_21301]
[UNUSED_21302]
[UNUSED_21303]
[UNUSED_21304]
[UNUSED_21305]
[UNUSED_21306]
[UNUSED_21307]
[UNUSED_21308]
[UNUSED_21309]
[UNUSED_21310]
[UNUSED_21311]
[UNUSED_21312]
[UNUSED_21313]
[UNUSED_21314]
[UNUSED_21315]
[UNUSED_21316]
[UNUSED_21317]
[UNUSED_21318]
[UNUSED_21319]
[UNUSED_21320]
[UNUSED_21321]
[UNUSED_21322]
[UNUSED_21323]
[UNUSED_21324]
[UNUSED_21325]
[UNUSED_21326]
[UNUSED_21327]
[UNUSED_21328]
[UNUSED_21329]
[UNUSED_21330]
[UNUSED_21331]
[UNUSED_21332]
[UNUSED_21333]
[UNUSED_21334]
[UNUSED_21335]
[UNUSED_21336]
[UNUSED_21337]
[UNUSED_21338]
[UNUSED_21339]
[UNUSED_21340]
[UNUSED_21341]
[UNUSED_21342]
[UNUSED_21343]
[UNUSED_21344]
[UNUSED_21345]
[UNUSED_21346]
[UNUSED_21347]
[UNUSED_21348]
[UNUSED_21349]
[UNUSED_21350]
[UNUSED_21351]
[UNUSED_21352]
[UNUSED_21353]
[UNUSED_21354]
[UNUSED_21355]
[UNUSED_21356]
[UNUSED_21357]
[UNUSED_21358]
[UNUSED_21359]
[UNUSED_21360]
[UNUSED_21361]
[UNUSED_21362]
[UNUSED_21363]
[UNUSED_21364]
[UNUSED_21365]
[UNUSED_21366]
[UNUSED_21367]
[UNUSED_21368]
[UNUSED_21369]
[UNUSED_21370]
[UNUSED_21371]
[UNUSED_21372]
[UNUSED_21373]
[UNUSED_21374]
[UNUSED_21375]
[UNUSED_21376]
[UNUSED_21377]
[UNUSED_21378]
[UNUSED_21379]
[UNUSED_21380]
[UNUSED_21381]
[UNUSED_21382]
[UNUSED_21383]
[UNUSED_21384]
[UNUSED_21385]
[UNUSED_21386]
[UNUSED_21387]
[UNUSED_21388]
[UNUSED_21389]
[UNUSED_21390]
[UNUSED_21391]
[UNUSED_21392]
[UNUSED_21393]
[UNUSED_21394]
[UNUSED_21395]
[UNUSED_21396]
[UNUSED_21397]
[UNUSED_21398]
[UNUSED_21399]
[UNUSED_21400]
[UNUSED_21401]
[UNUSED_21402]
[UNUSED_21403]
[UNUSED_21404]
[UNUSED_21405]
[UNUSED_21406]
[UNUSED_21407]
[UNUSED_21408]
[UNUSED_21409]
[UNUSED_21410]
[UNUSED_21411]
[UNUSED_21412]
[UNUSED_21413]
[UNUSED_21414]
[UNUSED_21415]
[UNUSED_21416]
[UNUSED_21417]
[UNUSED_21418]
[UNUSED_21419]
[UNUSED_21420]
[UNUSED_21421]
[UNUSED_21422]
[UNUSED_21423]
[UNUSED_21424]
[UNUSED_21425]
[UNUSED_21426]
[UNUSED_21427]
[UNUSED_21428]
[UNUSED_21429]
[UNUSED_21430]
[UNUSED_21431]
[UNUSED_21432]
[UNUSED_21433]
[UNUSED_21434]
[UNUSED_21435]
[UNUSED_21436]
[UNUSED_21437]
[UNUSED_21438]
[UNUSED_21439]
[UNUSED_21440]
[UNUSED_21441]
[UNUSED_21442]
[UNUSED_21443]
[UNUSED_21444]
[UNUSED_21445]
[UNUSED_21446]
[UNUSED_21447]
[UNUSED_21448]
[UNUSED_21449]
[UNUSED_21450]
[UNUSED_21451]
[UNUSED_21452]
[UNUSED_21453]
[UNUSED_21454]
[UNUSED_21455]
[UNUSED_21456]
[UNUSED_21457]
[UNUSED_21458]
[UNUSED_21459]
[UNUSED_21460]
[UNUSED_21461]
[UNUSED_21462]
[UNUSED_21463]
[UNUSED_21464]
[UNUSED_21465]
[UNUSED_21466]
[UNUSED_21467]
[UNUSED_21468]
[UNUSED_21469]
[UNUSED_21470]
[UNUSED_21471]
[UNUSED_21472]
[UNUSED_21473]
[UNUSED_21474]
[UNUSED_21475]
[UNUSED_21476]
[UNUSED_21477]
[UNUSED_21478]
[UNUSED_21479]
[UNUSED_21480]
[UNUSED_21481]
[UNUSED_21482]
[UNUSED_21483]
[UNUSED_21484]
[UNUSED_21485]
[UNUSED_21486]
[UNUSED_21487]
[UNUSED_21488]
[UNUSED_21489]
[UNUSED_21490]
[UNUSED_21491]
[UNUSED_21492]
[UNUSED_21493]
[UNUSED_21494]
[UNUSED_21495]
[UNUSED_21496]
[UNUSED_21497]
[UNUSED_21498]
[UNUSED_21499]
[UNUSED_21500]
[UNUSED_21501]
[UNUSED_21502]
[UNUSED_21503]
[UNUSED_21504]
[UNUSED_21505]
[UNUSED_21506]
[UNUSED_21507]
[UNUSED_21508]
[UNUSED_21509]
[UNUSED_21510]
[UNUSED_21511]
[UNUSED_21512]
[UNUSED_21513]
[UNUSED_21514]
[UNUSED_21515]
[UNUSED_21516]
[UNUSED_21517]
[UNUSED_21518]
[UNUSED_21519]
[UNUSED_21520]
[UNUSED_21521]
[UNUSED_21522]
[UNUSED_21523]
[UNUSED_21524]
[UNUSED_21525]
[UNUSED_21526]
[UNUSED_21527]
[UNUSED_21528]
[UNUSED_21529]
[UNUSED_21530]
[UNUSED_21531]
[UNUSED_21532]
[UNUSED_21533]
[UNUSED_21534]
[UNUSED_21535]
[UNUSED_21536]
[UNUSED_21537]
[UNUSED_21538]
[UNUSED_21539]
[UNUSED_21540]
[UNUSED_21541]
[UNUSED_21542]
[UNUSED_21543]
[UNUSED_21544]
[UNUSED_21545]
[UNUSED_21546]
[UNUSED_21547]
[UNUSED_21548]
[UNUSED_21549]
[UNUSED_21550]
[UNUSED_21551]
[UNUSED_21552]
[UNUSED_21553]
[UNUSED_21554]
[UNUSED_21555]
[UNUSED_21556]
[UNUSED_21557]
[UNUSED_21558]
[UNUSED_21559]
[UNUSED_21560]
[UNUSED_21561]
[UNUSED_21562]
[UNUSED_21563]
[UNUSED_21564]
[UNUSED_21565]
[UNUSED_21566]
[UNUSED_21567]
[UNUSED_21568]
[UNUSED_21569]
[UNUSED_21570]
[UNUSED_21571]
[UNUSED_21572]
[UNUSED_21573]
[UNUSED_21574]
[UNUSED_21575]
[UNUSED_21576]
[UNUSED_21577]
[UNUSED_21578]
[UNUSED_21579]
[UNUSED_21580]
[UNUSED_21581]
[UNUSED_21582]
[UNUSED_21583]
[UNUSED_21584]
[UNUSED_21585]
[UNUSED_21586]
[UNUSED_21587]
[UNUSED_21588]
[UNUSED_21589]
[UNUSED_21590]
[UNUSED_21591]
[UNUSED_21592]
[UNUSED_21593]
[UNUSED_21594]
[UNUSED_21595]
[UNUSED_21596]
[UNUSED_21597]
[UNUSED_21598]
[UNUSED_21599]
[UNUSED_21600]
[UNUSED_21601]
[UNUSED_21602]
[UNUSED_21603]
[UNUSED_21604]
[UNUSED_21605]
[UNUSED_21606]
[UNUSED_21607]
[UNUSED_21608]
[UNUSED_21609]
[UNUSED_21610]
[UNUSED_21611]
[UNUSED_21612]
[UNUSED_21613]
[UNUSED_21614]
[UNUSED_21615]
[UNUSED_21616]
[UNUSED_21617]
[UNUSED_21618]
[UNUSED_21619]
[UNUSED_21620]
[UNUSED_21621]
[UNUSED_21622]
[UNUSED_21623]
[UNUSED_21624]
[UNUSED_21625]
[UNUSED_21626]
[UNUSED_21627]
[UNUSED_21628]
[UNUSED_21629]
[UNUSED_21630]
[UNUSED_21631]
[UNUSED_21632]
[UNUSED_21633]
[UNUSED_21634]
[UNUSED_21635]
[UNUSED_21636]
[UNUSED_21637]
[UNUSED_21638]
[UNUSED_21639]
[UNUSED_21640]
[UNUSED_21641]
[UNUSED_21642]
[UNUSED_21643]
[UNUSED_21644]
[UNUSED_21645]
[UNUSED_21646]
[UNUSED_21647]
[UNUSED_21648]
[UNUSED_21649]
[UNUSED_21650]
[UNUSED_21651]
[UNUSED_21652]
[UNUSED_21653]
[UNUSED_21654]
[UNUSED_21655]
[UNUSED_21656]
[UNUSED_21657]
[UNUSED_21658]
[UNUSED_21659]
[UNUSED_21660]
[UNUSED_21661]
[UNUSED_21662]
[UNUSED_21663]
[UNUSED_21664]
[UNUSED_21665]
[UNUSED_21666]
[UNUSED_21667]
[UNUSED_21668]
[UNUSED_21669]
[UNUSED_21670]
[UNUSED_21671]
[UNUSED_21672]
[UNUSED_21673]
[UNUSED_21674]
[UNUSED_21675]
[UNUSED_21676]
[UNUSED_21677]
[UNUSED_21678]
[UNUSED_21679]
[UNUSED_21680]
[UNUSED_21681]
[UNUSED_21682]
[UNUSED_21683]
[UNUSED_21684]
[UNUSED_21685]
[UNUSED_21686]
[UNUSED_21687]
[UNUSED_21688]
[UNUSED_21689]
[UNUSED_21690]
[UNUSED_21691]
[UNUSED_21692]
[UNUSED_21693]
[UNUSED_21694]
[UNUSED_21695]
[UNUSED_21696]
[UNUSED_21697]
[UNUSED_21698]
[UNUSED_21699]
[UNUSED_21700]
[UNUSED_21701]
[UNUSED_21702]
[UNUSED_21703]
[UNUSED_21704]
[UNUSED_21705]
[UNUSED_21706]
[UNUSED_21707]
[UNUSED_21708]
[UNUSED_21709]
[UNUSED_21710]
[UNUSED_21711]
[UNUSED_21712]
[UNUSED_21713]
[UNUSED_21714]
[UNUSED_21715]
[UNUSED_21716]
[UNUSED_21717]
[UNUSED_21718]
[UNUSED_21719]
[UNUSED_21720]
[UNUSED_21721]
[UNUSED_21722]
[UNUSED_21723]
[UNUSED_21724]
[UNUSED_21725]
[UNUSED_21726]
[UNUSED_21727]
[UNUSED_21728]
[UNUSED_21729]
[UNUSED_21730]
[UNUSED_21731]
[UNUSED_21732]
[UNUSED_21733]
[UNUSED_21734]
[UNUSED_21735]
[UNUSED_21736]
[UNUSED_21737]
[UNUSED_21738]
[UNUSED_21739]
[UNUSED_21740]
[UNUSED_21741]
[UNUSED_21742]
[UNUSED_21743]
[UNUSED_21744]
[UNUSED_21745]
[UNUSED_21746]
[UNUSED_21747]
[UNUSED_21748]
[UNUSED_21749]
[UNUSED_21750]
[UNUSED_21751]
[UNUSED_21752]
[UNUSED_21753]
[UNUSED_21754]
[UNUSED_21755]
[UNUSED_21756]
[UNUSED_21757]
[UNUSED_21758]
[UNUSED_21759]
[UNUSED_21760]
[UNUSED_21761]
[UNUSED_21762]
[UNUSED_21763]
[UNUSED_21764]
[UNUSED_21765]
[UNUSED_21766]
[UNUSED_21767]
[UNUSED_21768]
[UNUSED_21769]
[UNUSED_21770]
[UNUSED_21771]
[UNUSED_21772]
[UNUSED_21773]
[UNUSED_21774]
[UNUSED_21775]
[UNUSED_21776]
[UNUSED_21777]
[UNUSED_21778]
[UNUSED_21779]
[UNUSED_21780]
[UNUSED_21781]
[UNUSED_21782]
[UNUSED_21783]
[UNUSED_21784]
[UNUSED_21785]
[UNUSED_21786]
[UNUSED_21787]
[UNUSED_21788]
[UNUSED_21789]
[UNUSED_21790]
[UNUSED_21791]
[UNUSED_21792]
[UNUSED_21793]
[UNUSED_21794]
[UNUSED_21795]
[UNUSED_21796]
[UNUSED_21797]
[UNUSED_21798]
[UNUSED_21799]
[UNUSED_21800]
[UNUSED_21801]
[UNUSED_21802]
[UNUSED_21803]
[UNUSED_21804]
[UNUSED_21805]
[UNUSED_21806]
[UNUSED_21807]
[UNUSED_21808]
[UNUSED_21809]
[UNUSED_21810]
[UNUSED_21811]
[UNUSED_21812]
[UNUSED_21813]
[UNUSED_21814]
[UNUSED_21815]
[UNUSED_21816]
[UNUSED_21817]
[UNUSED_21818]
[UNUSED_21819]
[UNUSED_21820]
[UNUSED_21821]
[UNUSED_21822]
[UNUSED_21823]
[UNUSED_21824]
[UNUSED_21825]
[UNUSED_21826]
[UNUSED_21827]
[UNUSED_21828]
[UNUSED_21829]
[UNUSED_21830]
[UNUSED_21831]
[UNUSED_21832]
[UNUSED_21833]
[UNUSED_21834]
[UNUSED_21835]
[UNUSED_21836]
[UNUSED_21837]
[UNUSED_21838]
[UNUSED_21839]
[UNUSED_21840]
[UNUSED_21841]
[UNUSED_21842]
[UNUSED_21843]
[UNUSED_21844]
[UNUSED_21845]
[UNUSED_21846]
[UNUSED_21847]
[UNUSED_21848]
[UNUSED_21849]
[UNUSED_21850]
[UNUSED_21851]
[UNUSED_21852]
[UNUSED_21853]
[UNUSED_21854]
[UNUSED_21855]
[UNUSED_21856]
[UNUSED_21857]
[UNUSED_21858]
[UNUSED_21859]
[UNUSED_21860]
[UNUSED_21861]
[UNUSED_21862]
[UNUSED_21863]
[UNUSED_21864]
[UNUSED_21865]
[UNUSED_21866]
[UNUSED_21867]
[UNUSED_21868]
[UNUSED_21869]
[UNUSED_21870]
[UNUSED_21871]
[UNUSED_21872]
[UNUSED_21873]
[UNUSED_21874]
[UNUSED_21875]
[UNUSED_21876]
[UNUSED_21877]
[UNUSED_21878]
[UNUSED_21879]
[UNUSED_21880]
[UNUSED_21881]
[UNUSED_21882]
[UNUSED_21883]
[UNUSED_21884]
[UNUSED_21885]
[UNUSED_21886]
[UNUSED_21887]
[UNUSED_21888]
[UNUSED_21889]
[UNUSED_21890]
[UNUSED_21891]
[UNUSED_21892]
[UNUSED_21893]
[UNUSED_21894]
[UNUSED_21895]
[UNUSED_21896]
[UNUSED_21897]
[UNUSED_21898]
[UNUSED_21899]
[UNUSED_21900]
[UNUSED_21901]
[UNUSED_21902]
[UNUSED_21903]
[UNUSED_21904]
[UNUSED_21905]
[UNUSED_21906]
[UNUSED_21907]
[UNUSED_21908]
[UNUSED_21909]
[UNUSED_21910]
[UNUSED_21911]
[UNUSED_21912]
[UNUSED_21913]
[UNUSED_21914]
[UNUSED_21915]
[UNUSED_21916]
[UNUSED_21917]
[UNUSED_21918]
[UNUSED_21919]
[UNUSED_21920]
[UNUSED_21921]
[UNUSED_21922]
[UNUSED_21923]
[UNUSED_21924]
[UNUSED_21925]
[UNUSED_21926]
[UNUSED_21927]
[UNUSED_21928]
[UNUSED_21929]
[UNUSED_21930]
[UNUSED_21931]
[UNUSED_21932]
[UNUSED_21933]
[UNUSED_21934]
[UNUSED_21935]
[UNUSED_21936]
[UNUSED_21937]
[UNUSED_21938]
[UNUSED_21939]
[UNUSED_21940]
[UNUSED_21941]
[UNUSED_21942]
[UNUSED_21943]
[UNUSED_21944]
[UNUSED_21945]
[UNUSED_21946]
[UNUSED_21947]
[UNUSED_21948]
[UNUSED_21949]
[UNUSED_21950]
[UNUSED_21951]
[UNUSED_21952]
[UNUSED_21953]
[UNUSED_21954]
[UNUSED_21955]
[UNUSED_21956]
[UNUSED_21957]
[UNUSED_21958]
[UNUSED_21959]
[UNUSED_21960]
[UNUSED_21961]
[UNUSED_21962]
[UNUSED_21963]
[UNUSED_21964]
[UNUSED_21965]
[UNUSED_21966]
[UNUSED_21967]
[UNUSED_21968]
[UNUSED_21969]
[UNUSED_21970]
[UNUSED_21971]
[UNUSED_21972]
[UNUSED_21973]
[UNUSED_21974]
[UNUSED_21975]
[UNUSED_21976]
[UNUSED_21977]
[UNUSED_21978]
[UNUSED_21979]
[UNUSED_21980]
[UNUSED_21981]
[UNUSED_21982]
[UNUSED_21983]
[UNUSED_21984]
[UNUSED_21985]
[UNUSED_21986]
[UNUSED_21987]
[UNUSED_21988]
[UNUSED_21989]
[UNUSED_21990]
[UNUSED_21991]
[UNUSED_21992]
[UNUSED_21993]
[UNUSED_21994]
[UNUSED_21995]
[UNUSED_21996]
[UNUSED_21997]
[UNUSED_21998]
[UNUSED_21999]
[UNUSED_22000]
[UNUSED_22001]
[UNUSED_22002]
[UNUSED_22003]
[UNUSED_22004]
[UNUSED_22005]
[UNUSED_22006]
[UNUSED_22007]
[UNUSED_22008]
[UNUSED_22009]
[UNUSED_22010]
[UNUSED_22011]
[UNUSED_22012]
[UNUSED_22013]
[UNUSED_22014]
[UNUSED_22015]
[UNUSED_22016]
[UNUSED_22017]
[UNUSED_22018]
[UNUSED_22019]
[UNUSED_22020]
[UNUSED_22021]
[UNUSED_22022]
[UNUSED_22023]
[UNUSED_22024]
[UNUSED_22025]
[UNUSED_22026]
[UNUSED_22027]
[UNUSED_22028]
[UNUSED_22029]
[UNUSED_22030]
[UNUSED_22031]
[UNUSED_22032]
[UNUSED_22033]
[UNUSED_22034]
[UNUSED_22035]
[UNUSED_22036]
[UNUSED_22037]
[UNUSED_22038]
[UNUSED_22039]
[UNUSED_22040]
[UNUSED_22041]
[UNUSED_22042]
[UNUSED_22043]
[UNUSED_22044]
[UNUSED_22045]
[UNUSED_22046]
[UNUSED_22047]
[UNUSED_22048]
[UNUSED_22049]
[UNUSED_22050]
[UNUSED_22051]
[UNUSED_22052]
[UNUSED_22053]
[UNUSED_22054]
[UNUSED_22055]
[UNUSED_22056]
[UNUSED_22057]
[UNUSED_22058]
[UNUSED_22059]
[UNUSED_22060]
[UNUSED_22061]
[UNUSED_22062]
[UNUSED_22063]
[UNUSED_22064]
[UNUSED_22065]
[UNUSED_22066]
[UNUSED_22067]
[UNUSED_22068]
[UNUSED_22069]
[UNUSED_22070]
[UNUSED_22071]
[UNUSED_22072]
[UNUSED_22073]
[UNUSED_22074]
[UNUSED_22075]
[UNUSED_22076]
[UNUSED_22077]
[UNUSED_22078]
[UNUSED_22079]
[UNUSED_22080]
[UNUSED_22081]
[UNUSED_22082]
[UNUSED_22083]
[UNUSED_22084]
[UNUSED_22085]
[UNUSED_22086]
[UNUSED_22087]
[UNUSED_22088]
[UNUSED_22089]
[UNUSED_22090]
[UNUSED_22091]
[UNUSED_22092]
[UNUSED_22093]
[UNUSED_22094]
[UNUSED_22095]
[UNUSED_22096]
[UNUSED_22097]
[UNUSED_22098]
[UNUSED_22099]
[UNUSED_22100]
[UNUSED_22101]
[UNUSED_22102]
[UNUSED_22103]
[UNUSED_22104]
[UNUSED_22105]
[UNUSED_22106]
[UNUSED_22107]
[UNUSED_22108]
[UNUSED_22109]
[UNUSED_22110]
[UNUSED_22111]
[UNUSED_22112]
[UNUSED_22113]
[UNUSED_22114]
[UNUSED_22115]
[UNUSED_22116]
[UNUSED_22117]
[UNUSED_22118]
[UNUSED_22119]
[UNUSED_22120]
[UNUSED_22121]
[UNUSED_22122]
[UNUSED_22123]
[UNUSED_22124]
[UNUSED_22125]
[UNUSED_22126]
[UNUSED_22127]
[UNUSED_22128]
[UNUSED_22129]
[UNUSED_22130]
[UNUSED_22131]
[UNUSED_22132]
[UNUSED_22133]
[UNUSED_22134]
[UNUSED_22135]
[UNUSED_22136]
[UNUSED_22137]
[UNUSED_22138]
[UNUSED_22139]
[UNUSED_22140]
[UNUSED_22141]
[UNUSED_22142]
[UNUSED_22143]
[UNUSED_22144]
[UNUSED_22145]
[UNUSED_22146]
[UNUSED_22147]
[UNUSED_22148]
[UNUSED_22149]
[UNUSED_22150]
[UNUSED_22151]
[UNUSED_22152]
[UNUSED_22153]
[UNUSED_22154]
[UNUSED_22155]
[UNUSED_22156]
[UNUSED_22157]
[UNUSED_22158]
[UNUSED_22159]
[UNUSED_22160]
[UNUSED_22161]
[UNUSED_22162]
[UNUSED_22163]
[UNUSED_22164]
[UNUSED_22165]
[UNUSED_22166]
[UNUSED_22167]
[UNUSED_22168]
[UNUSED_22169]
[UNUSED_22170]
[UNUSED_22171]
[UNUSED_22172]
[UNUSED_22173]
[UNUSED_22174]
[UNUSED_22175]
[UNUSED_22176]
[UNUSED_22177]
[UNUSED_22178]
[UNUSED_22179]
[UNUSED_22180]
[UNUSED_22181]
[UNUSED_22182]
[UNUSED_22183]
[UNUSED_22184]
[UNUSED_22185]
[UNUSED_22186]
[UNUSED_22187]
[UNUSED_22188]
[UNUSED_22189]
[UNUSED_22190]
[UNUSED_22191]
[UNUSED_22192]
[UNUSED_22193]
[UNUSED_22194]
[UNUSED_22195]
[UNUSED_22196]
[UNUSED_22197]
[UNUSED_22198]
[UNUSED_22199]
[UNUSED_22200]
[UNUSED_22201]
[UNUSED_22202]
[UNUSED_22203]
[UNUSED_22204]
[UNUSED_22205]
[UNUSED_22206]
[UNUSED_22207]
[UNUSED_22208]
[UNUSED_22209]
[UNUSED_22210]
[UNUSED_22211]
[UNUSED_22212]
[UNUSED_22213]
[UNUSED_22214]
[UNUSED_22215]
[UNUSED_22216]
[UNUSED_22217]
[UNUSED_22218]
[UNUSED_22219]
[UNUSED_22220]
[UNUSED_22221]
[UNUSED_22222]
[UNUSED_22223]
[UNUSED_22224]
[UNUSED_22225]
[UNUSED_22226]
[UNUSED_22227]
[UNUSED_22228]
[UNUSED_22229]
[UNUSED_22230]
[UNUSED_22231]
[UNUSED_22232]
[UNUSED_22233]
[UNUSED_22234]
[UNUSED_22235]
[UNUSED_22236]
[UNUSED_22237]
[UNUSED_22238]
[UNUSED_22239]
[UNUSED_22240]
[UNUSED_22241]
[UNUSED_22242]
[UNUSED_22243]
[UNUSED_22244]
[UNUSED_22245]
[UNUSED_22246]
[UNUSED_22247]
[UNUSED_22248]
[UNUSED_22249]
[UNUSED_22250]
[UNUSED_22251]
[UNUSED_22252]
[UNUSED_22253]
[UNUSED_22254]
[UNUSED_22255]
[UNUSED_22256]
[UNUSED_22257]
[UNUSED_22258]
[UNUSED_22259]
[UNUSED_22260]
[UNUSED_22261]
[UNUSED_22262]
[UNUSED_22263]
[UNUSED_22264]
[UNUSED_22265]
[UNUSED_22266]
[UNUSED_22267]
[UNUSED_22268]
[UNUSED_22269]
[UNUSED_22270]
[UNUSED_22271]
[UNUSED_22272]
[UNUSED_22273]
[UNUSED_22274]
[UNUSED_22275]
[UNUSED_22276]
[UNUSED_22277]
[UNUSED_22278]
[UNUSED_22279]
[UNUSED_22280]
[UNUSED_22281]
[UNUSED_22282]
[UNUSED_22283]
[UNUSED_22284]
[UNUSED_22285]
[UNUSED_22286]
[UNUSED_22287]
[UNUSED_22288]
[UNUSED_22289]
[UNUSED_22290]
[UNUSED_22291]
[UNUSED_22292]
[UNUSED_22293]
[UNUSED_22294]
[UNUSED_22295]
[UNUSED_22296]
[UNUSED_22297]
[UNUSED_22298]
[UNUSED_22299]
[UNUSED_22300]
[UNUSED_22301]
[UNUSED_22302]
[UNUSED_22303]
[UNUSED_22304]
[UNUSED_22305]
[UNUSED_22306]
[UNUSED_22307]
[UNUSED_22308]
[UNUSED_22309]
[UNUSED_22310]
[UNUSED_22311]
[UNUSED_22312]
[UNUSED_22313]
[UNUSED_22314]
[UNUSED_22315]
[UNUSED_22316]
[UNUSED_22317]
[UNUSED_22318]
[UNUSED_22319]
[UNUSED_22320]
[UNUSED_22321]
[UNUSED_22322]
[UNUSED_22323]
[UNUSED_22324]
[UNUSED_22325]
[UNUSED_22326]
[UNUSED_22327]
[UNUSED_22328]
[UNUSED_22329]
[UNUSED_22330]
[UNUSED_22331]
[UNUSED_22332]
[UNUSED_22333]
[UNUSED_22334]
[UNUSED_22335]
[UNUSED_22336]
[UNUSED_22337]
[UNUSED_22338]
[UNUSED_22339]
[UNUSED_22340]
[UNUSED_22341]
[UNUSED_22342]
[UNUSED_22343]
[UNUSED_22344]
[UNUSED_22345]
[UNUSED_22346]
[UNUSED_22347]
[UNUSED_22348]
[UNUSED_22349]
[UNUSED_22350]
[UNUSED_22351]
[UNUSED_22352]
[UNUSED_22353]
[UNUSED_22354]
[UNUSED_22355]
[UNUSED_22356]
[UNUSED_22357]
[UNUSED_22358]
[UNUSED_22359]
[UNUSED_22360]
[UNUSED_22361]
[UNUSED_22362]
[UNUSED_22363]
[UNUSED_22364]
[UNUSED_22365]
[UNUSED_22366]
[UNUSED_22367]
[UNUSED_22368]
[UNUSED_22369]
[UNUSED_22370]
[UNUSED_22371]
[UNUSED_22372]
[UNUSED_22373]
[UNUSED_22374]
[UNUSED_22375]
[UNUSED_22376]
[UNUSED_22377]
[UNUSED_22378]
[UNUSED_22379]
[UNUSED_22380]
[UNUSED_22381]
[UNUSED_22382]
[UNUSED_22383]
[UNUSED_22384]
[UNUSED_22385]
[UNUSED_22386]
[UNUSED_22387]
[UNUSED_22388]
[UNUSED_22389]
[UNUSED_22390]
[UNUSED_22391]
[UNUSED_22392]
[UNUSED_22393]
[UNUSED_22394]
[UNUSED_22395]
[UNUSED_22396]
[UNUSED_22397]
[UNUSED_22398]
[UNUSED_22399]
[UNUSED_22400]
[UNUSED_22401]
[UNUSED_22402]
[UNUSED_22403]
[UNUSED_22404]
[UNUSED_22405]
[UNUSED_22406]
[UNUSED_22407]
[UNUSED_22408]
[UNUSED_22409]
[UNUSED_22410]
[UNUSED_22411]
[UNUSED_22412]
[UNUSED_22413]
[UNUSED_22414]
[UNUSED_22415]
[UNUSED_22416]
[UNUSED_22417]
[UNUSED_22418]
[UNUSED_22419]
[UNUSED_22420]
[UNUSED_22421]
[UNUSED_22422]
[UNUSED_22423]
[UNUSED_22424]
[UNUSED_22425]
[UNUSED_22426]
[UNUSED_22427]
[UNUSED_22428]
[UNUSED_22429]
[UNUSED_22430]
[UNUSED_22431]
[UNUSED_22432]
[UNUSED_22433]
[UNUSED_22434]
[UNUSED_22435]
[UNUSED_22436]
[UNUSED_22437]
[UNUSED_22438]
[UNUSED_22439]
[UNUSED_22440]
[UNUSED_22441]
[UNUSED_22442]
[UNUSED_22443]
[UNUSED_22444]
[UNUSED_22445]
[UNUSED_22446]
[UNUSED_22447]
[UNUSED_22448]
[UNUSED_22449]
[UNUSED_22450]
[UNUSED_22451]
[UNUSED_22452]
[UNUSED_22453]
[UNUSED_22454]
[UNUSED_22455]
[UNUSED_22456]
[UNUSED_22457]
[UNUSED_22458]
[UNUSED_22459]
[UNUSED_22460]
[UNUSED_22461]
[UNUSED_22462]
[UNUSED_22463]
[UNUSED_22464]
[UNUSED_22465]
[UNUSED_22466]
[UNUSED_22467]
[UNUSED_22468]
[UNUSED_22469]
[UNUSED_22470]
[UNUSED_22471]
[UNUSED_22472]
[UNUSED_22473]
[UNUSED_22474]
[UNUSED_22475]
[UNUSED_22476]
[UNUSED_22477]
[UNUSED_22478]
[UNUSED_22479]
[UNUSED_22480]
[UNUSED_22481]
[UNUSED_22482]
[UNUSED_22483]
[UNUSED_22484]
[UNUSED_22485]
[UNUSED_22486]
[UNUSED_22487]
[UNUSED_22488]
[UNUSED_22489]
[UNUSED_22490]
[UNUSED_22491]
[UNUSED_22492]
[UNUSED_22493]
[UNUSED_22494]
[UNUSED_22495]
[UNUSED_22496]
[UNUSED_22497]
[UNUSED_22498]
[UNUSED_22499]
[UNUSED_22500]
[UNUSED_22501]
[UNUSED_22502]
[UNUSED_22503]
[UNUSED_22504]
[UNUSED_22505]
[UNUSED_22506]
[UNUSED_22507]
[UNUSED_22508]
[UNUSED_22509]
[UNUSED_22510]
[UNUSED_22511]
[UNUSED_22512]
[UNUSED_22513]
[UNUSED_22514]
[UNUSED_22515]
[UNUSED_22516]
[UNUSED_22517]
[UNUSED_22518]
[UNUSED_22519]
[UNUSED_22520]
[UNUSED_22521]
[UNUSED_22522]
[UNUSED_22523]
[UNUSED_22524]
[UNUSED_22525]
[UNUSED_22526]
[UNUSED_22527]
[UNUSED_22528]
[UNUSED_22529]
[UNUSED_22530]
[UNUSED_22531]
[UNUSED_22532]
[UNUSED_22533]
[UNUSED_22534]
[UNUSED_22535]
[UNUSED_22536]
[UNUSED_22537]
[UNUSED_22538]
[UNUSED_22539]
[UNUSED_22540]
[UNUSED_22541]
[UNUSED_22542]
[UNUSED_22543]
[UNUSED_22544]
[UNUSED_22545]
[UNUSED_22546]
[UNUSED_22547]
[UNUSED_22548]
[UNUSED_22549]
[UNUSED_22550]
[UNUSED_22551]
[UNUSED_22552]
[UNUSED_22553]
[UNUSED_22554]
[UNUSED_22555]
[UNUSED_22556]
[UNUSED_22557]
[UNUSED_22558]
[UNUSED_22559]
[UNUSED_22560]
[UNUSED_22561]
[UNUSED_22562]
[UNUSED_22563]
[UNUSED_22564]
[UNUSED_22565]
[UNUSED_22566]
[UNUSED_22567]
[UNUSED_22568]
[UNUSED_22569]
[UNUSED_22570]
[UNUSED_22571]
[UNUSED_22572]
[UNUSED_22573]
[UNUSED_22574]
[UNUSED_22575]
[UNUSED_22576]
[UNUSED_22577]
[UNUSED_22578]
[UNUSED_22579]
[UNUSED_22580]
[UNUSED_22581]
[UNUSED_22582]
[UNUSED_22583]
[UNUSED_22584]
[UNUSED_22585]
[UNUSED_22586]
[UNUSED_22587]
[UNUSED_22588]
[UNUSED_22589]
[UNUSED_22590]
[UNUSED_22591]
[UNUSED_22592]
[UNUSED_22593]
[UNUSED_22594]
[UNUSED_22595]
[UNUSED_22596]
[UNUSED_22597]
[UNUSED_22598]
[UNUSED_22599]
[UNUSED_22600]
[UNUSED_22601]
[UNUSED_22602]
[UNUSED_22603]
[UNUSED_22604]
[UNUSED_22605]
[UNUSED_22606]
[UNUSED_22607]
[UNUSED_22608]
[UNUSED_22609]
[UNUSED_22610]
[UNUSED_22611]
[UNUSED_22612]
[UNUSED_22613]
[UNUSED_22614]
[UNUSED_22615]
[UNUSED_22616]
[UNUSED_22617]
[UNUSED_22618]
[UNUSED_22619]
[UNUSED_22620]
[UNUSED_22621]
[UNUSED_22622]
[UNUSED_22623]
[UNUSED_22624]
[UNUSED_22625]
[UNUSED_22626]
[UNUSED_22627]
[UNUSED_22628]
[UNUSED_22629]
[UNUSED_22630]
[UNUSED_22631]
[UNUSED_22632]
[UNUSED_22633]
[UNUSED_22634]
[UNUSED_22635]
[UNUSED_22636]
[UNUSED_22637]
[UNUSED_22638]
[UNUSED_22639]
[UNUSED_22640]
[UNUSED_22641]
[UNUSED_22642]
[UNUSED_22643]
[UNUSED_22644]
[UNUSED_22645]
[UNUSED_22646]
[UNUSED_22647]
[UNUSED_22648]
[UNUSED_22649]
[UNUSED_22650]
[UNUSED_22651]
[UNUSED_22652]
[UNUSED_22653]
[UNUSED_22654]
[UNUSED_22655]
[UNUSED_22656]
[UNUSED_22657]
[UNUSED_22658]
[UNUSED_22659]
[UNUSED_22660]
[UNUSED_22661]
[UNUSED_22662]
[UNUSED_22663]
[UNUSED_22664]
[UNUSED_22665]
[UNUSED_22666]
[UNUSED_22667]
[UNUSED_22668]
[UNUSED_22669]
[UNUSED_22670]
[UNUSED_22671]
[UNUSED_22672]
[UNUSED_22673]
[UNUSED_22674]
[UNUSED_22675]
[UNUSED_22676]
[UNUSED_22677]
[UNUSED_22678]
[UNUSED_22679]
[UNUSED_22680]
[UNUSED_22681]
[UNUSED_22682]
[UNUSED_22683]
[UNUSED_22684]
[UNUSED_22685]
[UNUSED_22686]
[UNUSED_22687]
[UNUSED_22688]
[UNUSED_22689]
[UNUSED_22690]
[UNUSED_22691]
[UNUSED_22692]
[UNUSED_22693]
[UNUSED_22694]
[UNUSED_22695]
[UNUSED_22696]
[UNUSED_22697]
[UNUSED_22698]
[UNUSED_22699]
[UNUSED_22700]
[UNUSED_22701]
[UNUSED_22702]
[UNUSED_22703]
[UNUSED_22704]
[UNUSED_22705]
[UNUSED_22706]
[UNUSED_22707]
[UNUSED_22708]
[UNUSED_22709]
[UNUSED_22710]
[UNUSED_22711]
[UNUSED_22712]
[UNUSED_22713]
[UNUSED_22714]
[UNUSED_22715]
[UNUSED_22716]
[UNUSED_22717]
[UNUSED_22718]
[UNUSED_22719]
[UNUSED_22720]
[UNUSED_22721]
[UNUSED_22722]
[UNUSED_22723]
[UNUSED_22724]
[UNUSED_22725]
[UNUSED_22726]
[UNUSED_22727]
[UNUSED_22728]
[UNUSED_22729]
[UNUSED_22730]
[UNUSED_22731]
[UNUSED_22732]
[UNUSED_22733]
[UNUSED_22734]
[UNUSED_22735]
[UNUSED_22736]
[UNUSED_22737]
[UNUSED_22738]
[UNUSED_22739]
[UNUSED_22740]
[UNUSED_22741]
[UNUSED_22742]
[UNUSED_22743]
[UNUSED_22744]
[UNUSED_22745]
[UNUSED_22746]
[UNUSED_22747]
[UNUSED_22748]
[UNUSED_22749]
[UNUSED_22750]
[UNUSED_22751]
[UNUSED_22752]
[UNUSED_22753]
[UNUSED_22754]
[UNUSED_22755]
[UNUSED_22756]
[UNUSED_22757]
[UNUSED_22758]
[UNUSED_22759]
[UNUSED_22760]
[UNUSED_22761]
[UNUSED_22762]
[UNUSED_22763]
[UNUSED_22764]
[UNUSED_22765]
[UNUSED_22766]
[UNUSED_22767]
[UNUSED_22768]
[UNUSED_22769]
[UNUSED_22770]
[UNUSED_22771]
[UNUSED_22772]
[UNUSED_22773]
[UNUSED_22774]
[UNUSED_22775]
[UNUSED_22776]
[UNUSED_22777]
[UNUSED_22778]
[UNUSED_22779]
[UNUSED_22780]
[UNUSED_22781]
[UNUSED_22782]
[UNUSED_22783]
[UNUSED_22784]
[UNUSED_22785]
[UNUSED_22786]
[UNUSED_22787]
[UNUSED_22788]
[UNUSED_22789]
[UNUSED_22790]
[UNUSED_22791]
[UNUSED_22792]
[UNUSED_22793]
[UNUSED_22794]
[UNUSED_22795]
[UNUSED_22796]
[UNUSED_22797]
[UNUSED_22798]
[UNUSED_22799]
[UNUSED_22800]
[UNUSED_22801]
[UNUSED_22802]
[UNUSED_22803]
[UNUSED_22804]
[UNUSED_22805]
[UNUSED_22806]
[UNUSED_22807]
[UNUSED_22808]
[UNUSED_22809]
[UNUSED_22810]
[UNUSED_22811]
[UNUSED_22812]
[UNUSED_22813]
[UNUSED_22814]
[UNUSED_22815]
[UNUSED_22816]
[UNUSED_22817]
[UNUSED_22818]
[UNUSED_22819]
[UNUSED_22820]
[UNUSED_22821]
[UNUSED_22822]
[UNUSED_22823]
[UNUSED_22824]
[UNUSED_22825]
[UNUSED_22826]
[UNUSED_22827]
[UNUSED_22828]
[UNUSED_22829]
[UNUSED_22830]
[UNUSED_22831]
[UNUSED_22832]
[UNUSED_22833]
[UNUSED_22834]
[UNUSED_22835]
[UNUSED_22836]
[UNUSED_22837]
[UNUSED_22838]
[UNUSED_22839]
[UNUSED_22840]
[UNUSED_22841]
[UNUSED_22842]
[UNUSED_22843]
[UNUSED_22844]
[UNUSED_22845]
[UNUSED_22846]
[UNUSED_22847]
[UNUSED_22848]
[UNUSED_22849]
[UNUSED_22850]
[UNUSED_22851]
[UNUSED_22852]
[UNUSED_22853]
[UNUSED_22854]
[UNUSED_22855]
[UNUSED_22856]
[UNUSED_22857]
[UNUSED_22858]
[UNUSED_22859]
[UNUSED_22860]
[UNUSED_22861]
[UNUSED_22862]
[UNUSED_22863]
[UNUSED_22864]
[UNUSED_22865]
[UNUSED_22866]
[UNUSED_22867]
[UNUSED_22868]
[UNUSED_22869]
[UNUSED_22870]
[UNUSED_22871]
[UNUSED_22872]
[UNUSED_22873]
[UNUSED_22874]
[UNUSED_22875]
[UNUSED_22876]
[UNUSED_22877]
[UNUSED_22878]
[UNUSED_22879]
[UNUSED_22880]
[UNUSED_22881]
[UNUSED_22882]
[UNUSED_22883]
[UNUSED_22884]
[UNUSED_22885]
[UNUSED_22886]
[UNUSED_22887]
[UNUSED_22888]
[UNUSED_22889]
[UNUSED_22890]
[UNUSED_22891]
[UNUSED_22892]
[UNUSED_22893]
[UNUSED_22894]
[UNUSED_22895]
[UNUSED_22896]
[UNUSED_22897]
[UNUSED_22898]
[UNUSED_22899]
[UNUSED_22900]
[UNUSED_22901]
[UNUSED_22902]
[UNUSED_22903]
[UNUSED_22904]
[UNUSED_22905]
[UNUSED_22906]
[UNUSED_22907]
[UNUSED_22908]
[UNUSED_22909]
[UNUSED_22910]
[UNUSED_22911]
[UNUSED_22912]
[UNUSED_22913]
[UNUSED_22914]
[UNUSED_22915]
[UNUSED_22916]
[UNUSED_22917]
[UNUSED_22918]
[UNUSED_22919]
[UNUSED_22920]
[UNUSED_22921]
[UNUSED_22922]
[UNUSED_22923]
[UNUSED_22924]
[UNUSED_22925]
[UNUSED_22926]
[UNUSED_22927]
[UNUSED_22928]
[UNUSED_22929]
[UNUSED_22930]
[UNUSED_22931]
[UNUSED_22932]
[UNUSED_22933]
[UNUSED_22934]
[UNUSED_22935]
[UNUSED_22936]
[UNUSED_22937]
[UNUSED_22938]
[UNUSED_22939]
[UNUSED_22940]
[UNUSED_22941]
[UNUSED_22942]
[UNUSED_22943]
[UNUSED_22944]
[UNUSED_22945]
[UNUSED_22946]
[UNUSED_22947]
[UNUSED_22948]
[UNUSED_22949]
[UNUSED_22950]
[UNUSED_22951]
[UNUSED_22952]
[UNUSED_22953]
[UNUSED_22954]
[UNUSED_22955]
[UNUSED_22956]
[UNUSED_22957]
[UNUSED_22958]
[UNUSED_22959]
[UNUSED_22960]
[UNUSED_22961]
[UNUSED_22962]
[UNUSED_22963]
[UNUSED_22964]
[UNUSED_22965]
[UNUSED_22966]
[UNUSED_22967]
[UNUSED_22968]
[UNUSED_22969]
[UNUSED_22970]
[UNUSED_22971]
[UNUSED_22972]
[UNUSED_22973]
[UNUSED_22974]
[UNUSED_22975]
[UNUSED_22976]
[UNUSED_22977]
[UNUSED_22978]
[UNUSED_22979]
[UNUSED_22980]
[UNUSED_22981]
[UNUSED_22982]
[UNUSED_22983]
[UNUSED_22984]
[UNUSED_22985]
[UNUSED_22986]
[UNUSED_22987]
[UNUSED_22988]
[UNUSED_22989]
[UNUSED_22990]
[UNUSED_22991]
[UNUSED_22992]
[UNUSED_22993]
[UNUSED_22994]
[UNUSED_22995]
[UNUSED_22996]
[UNUSED_22997]
[UNUSED_22998]
[UNUSED_22999]
[UNUSED_23000]
[UNUSED_23001]
[UNUSED_23002]
[UNUSED_23003]
[UNUSED_23004]
[UNUSED_23005]
[UNUSED_23006]
[UNUSED_23007]
[UNUSED_23008]
[UNUSED_23009]
[UNUSED_23010]
[UNUSED_23011]
[UNUSED_23012]
[UNUSED_23013]
[UNUSED_23014]
[UNUSED_23015]
[UNUSED_23016]
[UNUSED_23017]
[UNUSED_23018]
[UNUSED_23019]
[UNUSED_23020]
[UNUSED_23021]
[UNUSED_23022]
[UNUSED_23023]
[UNUSED_23024]
[UNUSED_23025]
[UNUSED_23026]
[UNUSED_23027]
[UNUSED_23028]
[UNUSED_23029]
[UNUSED_23030]
[UNUSED_23031]
[UNUSED_23032]
[UNUSED_23033]
[UNUSED_23034]
[UNUSED_23035]
[UNUSED_23036]
[UNUSED_23037]
[UNUSED_23038]
[UNUSED_23039]
[UNUSED_23040]
[UNUSED_23041]
[UNUSED_23042]
[UNUSED_23043]
[UNUSED_23044]
[UNUSED_23045]
[UNUSED_23046]
[UNUSED_23047]
[UNUSED_23048]
[UNUSED_23049]
[UNUSED_23050]
[UNUSED_23051]
[UNUSED_23052]
[UNUSED_23053]
[UNUSED_23054]
[UNUSED_23055]
[UNUSED_23056]
[UNUSED_23057]
[UNUSED_23058]
[UNUSED_23059]
[UNUSED_23060]
[UNUSED_23061]
[UNUSED_23062]
[UNUSED_23063]
[UNUSED_23064]
[UNUSED_23065]
[UNUSED_23066]
[UNUSED_23067]
[UNUSED_23068]
[UNUSED_23069]
[UNUSED_23070]
[UNUSED_23071]
[UNUSED_23072]
[UNUSED_23073]
[UNUSED_23074]
[UNUSED_23075]
[UNUSED_23076]
[UNUSED_23077]
[UNUSED_23078]
[UNUSED_23079]
[UNUSED_23080]
[UNUSED_23081]
[UNUSED_23082]
[UNUSED_23083]
[UNUSED_23084]
[UNUSED_23085]
[UNUSED_23086]
[UNUSED_23087]
[UNUSED_23088]
[UNUSED_23089]
[UNUSED_23090]
[UNUSED_23091]
[UNUSED_23092]
[UNUSED_23093]
[UNUSED_23094]
[UNUSED_23095]
[UNUSED_23096]
[UNUSED_23097]
[UNUSED_23098]
[UNUSED_23099]
[UNUSED_23100]
[UNUSED_23101]
[UNUSED_23102]
[UNUSED_23103]
[UNUSED_23104]
[UNUSED_23105]
[UNUSED_23106]
[UNUSED_23107]
[UNUSED_23108]
[UNUSED_23109]
[UNUSED_23110]
[UNUSED_23111]
[UNUSED_23112]
[UNUSED_23113]
[UNUSED_23114]
[UNUSED_23115]
[UNUSED_23116]
[UNUSED_23117]
[UNUSED_23118]
[UNUSED_23119]
[UNUSED_23120]
[UNUSED_23121]
[UNUSED_23122]
[UNUSED_23123]
[UNUSED_23124]
[UNUSED_23125]
[UNUSED_23126]
[UNUSED_23127]
[UNUSED_23128]
[UNUSED_23129]
[UNUSED_23130]
[UNUSED_23131]
[UNUSED_23132]
[UNUSED_23133]
[UNUSED_23134]
[UNUSED_23135]
[UNUSED_23136]
[UNUSED_23137]
[UNUSED_23138]
[UNUSED_23139]
[UNUSED_23140]
[UNUSED_23141]
[UNUSED_23142]
[UNUSED_23143]
[UNUSED_23144]
[UNUSED_23145]
[UNUSED_23146]
[UNUSED_23147]
[UNUSED_23148]
[UNUSED_23149]
[UNUSED_23150]
[UNUSED_23151]
[UNUSED_23152]
[UNUSED_23153]
[UNUSED_23154]
[UNUSED_23155]
[UNUSED_23156]
[UNUSED_23157]
[UNUSED_23158]
[UNUSED_23159]
[UNUSED_23160]
[UNUSED_23161]
[UNUSED_23162]
[UNUSED_23163]
[UNUSED_23164]
[UNUSED_23165]
[UNUSED_23166]
[UNUSED_23167]
[UNUSED_23168]
[UNUSED_23169]
[UNUSED_23170]
[UNUSED_23171]
[UNUSED_23172]
[UNUSED_23173]
[UNUSED_23174]
[UNUSED_23175]
[UNUSED_23176]
[UNUSED_23177]
[UNUSED_23178]
[UNUSED_23179]
[UNUSED_23180]
[UNUSED_23181]
[UNUSED_23182]
[UNUSED_23183]
[UNUSED_23184]
[UNUSED_23185]
[UNUSED_23186]
[UNUSED_23187]
[UNUSED_23188]
[UNUSED_23189]
[UNUSED_23190]
[UNUSED_23191]
[UNUSED_23192]
[UNUSED_23193]
[UNUSED_23194]
[UNUSED_23195]
[UNUSED_23196]
[UNUSED_23197]
[UNUSED_23198]
[UNUSED_23199]
[UNUSED_23200]
[UNUSED_23201]
[UNUSED_23202]
[UNUSED_23203]
[UNUSED_23204]
[UNUSED_23205]
[UNUSED_23206]
[UNUSED_23207]
[UNUSED_23208]
[UNUSED_23209]
[UNUSED_23210]
[UNUSED_23211]
[UNUSED_23212]
[UNUSED_23213]
[UNUSED_23214]
[UNUSED_23215]
[UNUSED_23216]
[UNUSED_23217]
[UNUSED_23218]
[UNUSED_23219]
[UNUSED_23220]
[UNUSED_23221]
[UNUSED_23222]
[UNUSED_23223]
[UNUSED_23224]
[UNUSED_23225]
[UNUSED_23226]
[UNUSED_23227]
[UNUSED_23228]
[UNUSED_23229]
[UNUSED_23230]
[UNUSED_23231]
[UNUSED_23232]
[UNUSED_23233]
[UNUSED_23234]
[UNUSED_23235]
[UNUSED_23236]
[UNUSED_23237]
[UNUSED_23238]
[UNUSED_23239]
[UNUSED_23240]
[UNUSED_23241]
[UNUSED_23242]
[UNUSED_23243]
[UNUSED_23244]
[UNUSED_23245]
[UNUSED_23246]
[UNUSED_23247]
[UNUSED_23248]
[UNUSED_23249]
[UNUSED_23250]
[UNUSED_23251]
[UNUSED_23252]
[UNUSED_23253]
[UNUSED_23254]
[UNUSED_23255]
[UNUSED_23256]
[UNUSED_23257]
[UNUSED_23258]
[UNUSED_23259]
[UNUSED_23260]
[UNUSED_23261]
[UNUSED_23262]
[UNUSED_23263]
[UNUSED_23264]
[UNUSED_23265]
[UNUSED_23266]
[UNUSED_23267]
[UNUSED_23268]
[UNUSED_23269]
[UNUSED_23270]
[UNUSED_23271]
[UNUSED_23272]
[UNUSED_23273]
[UNUSED_23274]
[UNUSED_23275]
[UNUSED_23276]
[UNUSED_23277]
[UNUSED_23278]
[UNUSED_23279]
[UNUSED_23280]
[UNUSED_23281]
[UNUSED_23282]
[UNUSED_23283]
[UNUSED_23284]
[UNUSED_23285]
[UNUSED_23286]
[UNUSED_23287]
[UNUSED_23288]
[UNUSED_23289]
[UNUSED_23290]
[UNUSED_23291]
[UNUSED_23292]
[UNUSED_23293]
[UNUSED_23294]
[UNUSED_23295]
[UNUSED_23296]
[UNUSED_23297]
[UNUSED_23298]
[UNUSED_23299]
[UNUSED_23300]
[UNUSED_23301]
[UNUSED_23302]
[UNUSED_23303]
[UNUSED_23304]
[UNUSED_23305]
[UNUSED_23306]
[UNUSED_23307]
[UNUSED_23308]
[UNUSED_23309]
[UNUSED_23310]
[UNUSED_23311]
[UNUSED_23312]
[UNUSED_23313]
[UNUSED_23314]
[UNUSED_23315]
[UNUSED_23316]
[UNUSED_23317]
[UNUSED_23318]
[UNUSED_23319]
[UNUSED_23320]
[UNUSED_23321]
[UNUSED_23322]
[UNUSED_23323]
[UNUSED_23324]
[UNUSED_23325]
[UNUSED_23326]
[UNUSED_23327]
[UNUSED_23328]
[UNUSED_23329]
[UNUSED_23330]
[UNUSED_23331]
[UNUSED_23332]
[UNUSED_23333]
[UNUSED_23334]
[UNUSED_23335]
[UNUSED_23336]
[UNUSED_23337]
[UNUSED_23338]
[UNUSED_23339]
[UNUSED_23340]
[UNUSED_23341]
[UNUSED_23342]
[UNUSED_23343]
[UNUSED_23344]
[UNUSED_23345]
[UNUSED_23346]
[UNUSED_23347]
[UNUSED_23348]
[UNUSED_23349]
[UNUSED_23350]
[UNUSED_23351]
[UNUSED_23352]
[UNUSED_23353]
[UNUSED_23354]
[UNUSED_23355]
[UNUSED_23356]
[UNUSED_23357]
[UNUSED_23358]
[UNUSED_23359]
[UNUSED_23360]
[UNUSED_23361]
[UNUSED_23362]
[UNUSED_23363]
[UNUSED_23364]
[UNUSED_23365]
[UNUSED_23366]
[UNUSED_23367]
[UNUSED_23368]
[UNUSED_23369]
[UNUSED_23370]
[UNUSED_23371]
[UNUSED_23372]
[UNUSED_23373]
[UNUSED_23374]
[UNUSED_23375]
[UNUSED_23376]
[UNUSED_23377]
[UNUSED_23378]
[UNUSED_23379]
[UNUSED_23380]
[UNUSED_23381]
[UNUSED_23382]
[UNUSED_23383]
[UNUSED_23384]
[UNUSED_23385]
[UNUSED_23386]
[UNUSED_23387]
[UNUSED_23388]
[UNUSED_23389]
[UNUSED_23390]
[UNUSED_23391]
[UNUSED_23392]
[UNUSED_23393]
[UNUSED_23394]
[UNUSED_23395]
[UNUSED_23396]
[UNUSED_23397]
[UNUSED_23398]
[UNUSED_23399]
[UNUSED_23400]
[UNUSED_23401]
[UNUSED_23402]
[UNUSED_23403]
[UNUSED_23404]
[UNUSED_23405]
[UNUSED_23406]
[UNUSED_23407]
[UNUSED_23408]
[UNUSED_23409]
[UNUSED_23410]
[UNUSED_23411]
[UNUSED_23412]
[UNUSED_23413]
[UNUSED_23414]
[UNUSED_23415]
[UNUSED_23416]
[UNUSED_23417]
[UNUSED_23418]
[UNUSED_23419]
[UNUSED_23420]
[UNUSED_23421]
[UNUSED_23422]
[UNUSED_23423]
[UNUSED_23424]
[UNUSED_23425]
[UNUSED_23426]
[UNUSED_23427]
[UNUSED_23428]
[UNUSED_23429]
[UNUSED_23430]
[UNUSED_23431]
[UNUSED_23432]
[UNUSED_23433]
[UNUSED_23434]
[UNUSED_23435]
[UNUSED_23436]
[UNUSED_23437]
[UNUSED_23438]
[UNUSED_23439]
[UNUSED_23440]
[UNUSED_23441]
[UNUSED_23442]
[UNUSED_23443]
[UNUSED_23444]
[UNUSED_23445]
[UNUSED_23446]
[UNUSED_23447]
[UNUSED_23448]
[UNUSED_23449]
[UNUSED_23450]
[UNUSED_23451]
[UNUSED_23452]
[UNUSED_23453]
[UNUSED_23454]
[UNUSED_23455]
[UNUSED_23456]
[UNUSED_23457]
[UNUSED_23458]
[UNUSED_23459]
[UNUSED_23460]
[UNUSED_23461]
[UNUSED_23462]
[UNUSED_23463]
[UNUSED_23464]
[UNUSED_23465]
[UNUSED_23466]
[UNUSED_23467]
[UNUSED_23468]
[UNUSED_23469]
[UNUSED_23470]
[UNUSED_23471]
[UNUSED_23472]
[UNUSED_23473]
[UNUSED_23474]
[UNUSED_23475]
[UNUSED_23476]
[UNUSED_23477]
[UNUSED_23478]
[UNUSED_23479]
[UNUSED_23480]
[UNUSED_23481]
[UNUSED_23482]
[UNUSED_23483]
[UNUSED_23484]
[UNUSED_23485]
[UNUSED_23486]
[UNUSED_23487]
[UNUSED_23488]
[UNUSED_23489]
[UNUSED_23490]
[UNUSED_23491]
[UNUSED_23492]
[UNUSED_23493]
[UNUSED_23494]
[UNUSED_23495]
[UNUSED_23496]
[UNUSED_23497]
[UNUSED_23498]
[UNUSED_23499]
[UNUSED_23500]
[UNUSED_23501]
[UNUSED_23502]
[UNUSED_23503]
[UNUSED_23504]
[UNUSED_23505]
[UNUSED_23506]
[UNUSED_23507]
[UNUSED_23508]
[UNUSED_23509]
[UNUSED_23510]
[UNUSED_23511]
[UNUSED_23512]
[UNUSED_23513]
[UNUSED_23514]
[UNUSED_23515]
[UNUSED_23516]
[UNUSED_23517]
[UNUSED_23518]
[UNUSED_23519]
[UNUSED_23520]
[UNUSED_23521]
[UNUSED_23522]
[UNUSED_23523]
[UNUSED_23524]
[UNUSED_23525]
[UNUSED_23526]
[UNUSED_23527]
[UNUSED_23528]
[UNUSED_23529]
[UNUSED_23530]
[UNUSED_23531]
[UNUSED_23532]
[UNUSED_23533]
[UNUSED_23534]
[UNUSED_23535]
[UNUSED_23536]
[UNUSED_23537]
[UNUSED_23538]
[UNUSED_23539]
[UNUSED_23540]
[UNUSED_23541]
[UNUSED_23542]
[UNUSED_23543]
[UNUSED_23544]
[UNUSED_23545]
[UNUSED_23546]
[UNUSED_23547]
[UNUSED_23548]
[UNUSED_23549]
[UNUSED_23550]
[UNUSED_23551]
[UNUSED_23552]
[UNUSED_23553]
[UNUSED_23554]
[UNUSED_23555]
[UNUSED_23556]
[UNUSED_23557]
[UNUSED_23558]
[UNUSED_23559]
[UNUSED_23560]
[UNUSED_23561]
[UNUSED_23562]
[UNUSED_23563]
[UNUSED_23564]
[UNUSED_23565]
[UNUSED_23566]
[UNUSED_23567]
[UNUSED_23568]
[UNUSED_23569]
[UNUSED_23570]
[UNUSED_23571]
[UNUSED_23572]
[UNUSED_23573]
[UNUSED_23574]
[UNUSED_23575]
[UNUSED_23576]
[UNUSED_23577]
[UNUSED_23578]
[UNUSED_23579]
[UNUSED_23580]
[UNUSED_23581]
[UNUSED_23582]
[UNUSED_23583]
[UNUSED_23584]
[UNUSED_23585]
[UNUSED_23586]
[UNUSED_23587]
[UNUSED_23588]
[UNUSED_23589]
[UNUSED_23590]
[UNUSED_23591]
[UNUSED_23592]
[UNUSED_23593]
[UNUSED_23594]
[UNUSED_23595]
[UNUSED_23596]
[UNUSED_23597]
[UNUSED_23598]
[UNUSED_23599]
[UNUSED_23600]
[UNUSED_23601]
[UNUSED_23602]
[UNUSED_23603]
[UNUSED_23604]
[UNUSED_23605]
[UNUSED_23606]
[UNUSED_23607]
[UNUSED_23608]
[UNUSED_23609]
[UNUSED_23610]
[UNUSED_23611]
[UNUSED_23612]
[UNUSED_23613]
[UNUSED_23614]
[UNUSED_23615]
[UNUSED_23616]
[UNUSED_23617]
[UNUSED_23618]
[UNUSED_23619]
[UNUSED_23620]
[UNUSED_23621]
[UNUSED_23622]
[UNUSED_23623]
[UNUSED_23624]
[UNUSED_23625]
[UNUSED_23626]
[UNUSED_23627]
[UNUSED_23628]
[UNUSED_23629]
[UNUSED_23630]
[UNUSED_23631]
[UNUSED_23632]
[UNUSED_23633]
[UNUSED_23634]
[UNUSED_23635]
[UNUSED_23636]
[UNUSED_23637]
[UNUSED_23638]
[UNUSED_23639]
[UNUSED_23640]
[UNUSED_23641]
[UNUSED_23642]
[UNUSED_23643]
[UNUSED_23644]
[UNUSED_23645]
[UNUSED_23646]
[UNUSED_23647]
[UNUSED_23648]
[UNUSED_23649]
[UNUSED_23650]
[UNUSED_23651]
[UNUSED_23652]
[UNUSED_23653]
[UNUSED_23654]
[UNUSED_23655]
[UNUSED_23656]
[UNUSED_23657]
[UNUSED_23658]
[UNUSED_23659]
[UNUSED_23660]
[UNUSED_23661]
[UNUSED_23662]
[UNUSED_23663]
[UNUSED_23664]
[UNUSED_23665]
[UNUSED_23666]
[UNUSED_23667]
[UNUSED_23668]
[UNUSED_23669]
[UNUSED_23670]
[UNUSED_23671]
[UNUSED_23672]
[UNUSED_23673]
[UNUSED_23674]
[UNUSED_23675]
[UNUSED_23676]
[UNUSED_23677]
[UNUSED_23678]
[UNUSED_23679]
[UNUSED_23680]
[UNUSED_23681]
[UNUSED_23682]
[UNUSED_23683]
[UNUSED_23684]
[UNUSED_23685]
[UNUSED_23686]
[UNUSED_23687]
[UNUSED_23688]
[UNUSED_23689]
[UNUSED_23690]
[UNUSED_23691]
[UNUSED_23692]
[UNUSED_23693]
[UNUSED_23694]
[UNUSED_23695]
[UNUSED_23696]
[UNUSED_23697]
[UNUSED_23698]
[UNUSED_23699]
[UNUSED_23700]
[UNUSED_23701]
[UNUSED_23702]
[UNUSED_23703]
[UNUSED_23704]
[UNUSED_23705]
[UNUSED_23706]
[UNUSED_23707]
[UNUSED_23708]
[UNUSED_23709]
[UNUSED_23710]
[UNUSED_23711]
[UNUSED_23712]
[UNUSED_23713]
[UNUSED_23714]
[UNUSED_23715]
[UNUSED_23716]
[UNUSED_23717]
[UNUSED_23718]
[UNUSED_23719]
[UNUSED_23720]
[UNUSED_23721]
[UNUSED_23722]
[UNUSED_23723]
[UNUSED_23724]
[UNUSED_23725]
[UNUSED_23726]
[UNUSED_23727]
[UNUSED_23728]
[UNUSED_23729]
[UNUSED_23730]
[UNUSED_23731]
[UNUSED_23732]
[UNUSED_23733]
[UNUSED_23734]
[UNUSED_23735]
[UNUSED_23736]
[UNUSED_23737]
[UNUSED_23738]
[UNUSED_23739]
[UNUSED_23740]
[UNUSED_23741]
[UNUSED_23742]
[UNUSED_23743]
[UNUSED_23744]
[UNUSED_23745]
[UNUSED_23746]
[UNUSED_23747]
[UNUSED_23748]
[UNUSED_23749]
[UNUSED_23750]
[UNUSED_23751]
[UNUSED_23752]
[UNUSED_23753]
[UNUSED_23754]
[UNUSED_23755]
[UNUSED_23756]
[UNUSED_23757]
[UNUSED_23758]
[UNUSED_23759]
[UNUSED_23760]
[UNUSED_23761]
[UNUSED_23762]
[UNUSED_23763]
[UNUSED_23764]
[UNUSED_23765]
[UNUSED_23766]
[UNUSED_23767]
[UNUSED_23768]
[UNUSED_23769]
[UNUSED_23770]
[UNUSED_23771]
[UNUSED_23772]
[UNUSED_23773]
[UNUSED_23774]
[UNUSED_23775]
[UNUSED_23776]
[UNUSED_23777]
[UNUSED_23778]
[UNUSED_23779]
[UNUSED_23780]
[UNUSED_23781]
[UNUSED_23782]
[UNUSED_23783]
[UNUSED_23784]
[UNUSED_23785]
[UNUSED_23786]
[UNUSED_23787]
[UNUSED_23788]
[UNUSED_23789]
[UNUSED_23790]
[UNUSED_23791]
[UNUSED_23792]
[UNUSED_23793]
[UNUSED_23794]
[UNUSED_23795]
[UNUSED_23796]
[UNUSED_23797]
[UNUSED_23798]
[UNUSED_23799]
[UNUSED_23800]
[UNUSED_23801]
[UNUSED_23802]
[UNUSED_23803]
[UNUSED_23804]
[UNUSED_23805]
[UNUSED_23806]
[UNUSED_23807]
[UNUSED_23808]
[UNUSED_23809]
[UNUSED_23810]
[UNUSED_23811]
[UNUSED_23812]
[UNUSED_23813]
[UNUSED_23814]
[UNUSED_23815]
[UNUSED_23816]
[UNUSED_23817]
[UNUSED_23818]
[UNUSED_23819]
[UNUSED_23820]
[UNUSED_23821]
[UNUSED_23822]
[UNUSED_23823]
[UNUSED_23824]
[UNUSED_23825]
[UNUSED_23826]
[UNUSED_23827]
[UNUSED_23828]
[UNUSED_23829]
[UNUSED_23830]
[UNUSED_23831]
[UNUSED_23832]
[UNUSED_23833]
[UNUSED_23834]
[UNUSED_23835]
[UNUSED_23836]
[UNUSED_23837]
[UNUSED_23838]
[UNUSED_23839]
[UNUSED_23840]
[UNUSED_23841]
[UNUSED_23842]
[UNUSED_23843]
[UNUSED_23844]
[UNUSED_23845]
[UNUSED_23846]
[UNUSED_23847]
[UNUSED_23848]
[UNUSED_23849]
[UNUSED_23850]
[UNUSED_23851]
[UNUSED_23852]
[UNUSED_23853]
[UNUSED_23854]
[UNUSED_23855]
[UNUSED_23856]
[UNUSED_23857]
[UNUSED_23858]
[UNUSED_23859]
[UNUSED_23860]
[UNUSED_23861]
[UNUSED_23862]
[UNUSED_23863]
[UNUSED_23864]
[UNUSED_23865]
[UNUSED_23866]
[UNUSED_23867]
[UNUSED_23868]
[UNUSED_23869]
[UNUSED_23870]
[UNUSED_23871]
[UNUSED_23872]
[UNUSED_23873]
[UNUSED_23874]
[UNUSED_23875]
[UNUSED_23876]
[UNUSED_23877]
[UNUSED_23878]
[UNUSED_23879]
[UNUSED_23880]
[UNUSED_23881]
[UNUSED_23882]
[UNUSED_23883]
[UNUSED_23884]
[UNUSED_23885]
[UNUSED_23886]
[UNUSED_23887]
[UNUSED_23888]
[UNUSED_23889]
[UNUSED_23890]
[UNUSED_23891]
[UNUSED_23892]
[UNUSED_23893]
[UNUSED_23894]
[UNUSED_23895]
[UNUSED_23896]
[UNUSED_23897]
[UNUSED_23898]
[UNUSED_23899]
[UNUSED_23900]
[UNUSED_23901]
[UNUSED_23902]
[UNUSED_23903]
[UNUSED_23904]
[UNUSED_23905]
[UNUSED_23906]
[UNUSED_23907]
[UNUSED_23908]
[UNUSED_23909]
[UNUSED_23910]
[UNUSED_23911]
[UNUSED_23912]
[UNUSED_23913]
[UNUSED_23914]
[UNUSED_23915]
[UNUSED_23916]
[UNUSED_23917]
[UNUSED_23918]
[UNUSED_23919]
[UNUSED_23920]
[UNUSED_23921]
[UNUSED_23922]
[UNUSED_23923]
[UNUSED_23924]
[UNUSED_23925]
[UNUSED_23926]
[UNUSED_23927]
[UNUSED_23928]
[UNUSED_23929]
[UNUSED_23930]
[UNUSED_23931]
[UNUSED_23932]
[UNUSED_23933]
[UNUSED_23934]
[UNUSED_23935]
[UNUSED_23936]
[UNUSED_23937]
[UNUSED_23938]
[UNUSED_23939]
[UNUSED_23940]
[UNUSED_23941]
[UNUSED_23942]
[UNUSED_23943]
[UNUSED_23944]
[UNUSED_23945]
[UNUSED_23946]
[UNUSED_23947]
[UNUSED_23948]
[UNUSED_23949]
[UNUSED_23950]
[UNUSED_23951]
[UNUSED_23952]
[UNUSED_23953]
[UNUSED_23954]
[UNUSED_23955]
[UNUSED_23956]
[UNUSED_23957]
[UNUSED_23958]
[UNUSED_23959]
[UNUSED_23960]
[UNUSED_23961]
[UNUSED_23962]
[UNUSED_23963]
[UNUSED_23964]
[UNUSED_23965]
[UNUSED_23966]
[UNUSED_23967]
[UNUSED_23968]
[UNUSED_23969]
[UNUSED_23970]
[UNUSED_23971]
[UNUSED_23972]
[UNUSED_23973]
[UNUSED_23974]
[UNUSED_23975]
[UNUSED_23976]
[UNUSED_23977]
[UNUSED_23978]
[UNUSED_23979]
[UNUSED_23980]
[UNUSED_23981]
[UNUSED_23982]
[UNUSED_23983]
[UNUSED_23984]
[UNUSED_23985]
[UNUSED_23986]
[UNUSED_23987]
[UNUSED_23988]
[UNUSED_23989]
[UNUSED_23990]
[UNUSED_23991]
[UNUSED_23992]
[UNUSED_23993]
[UNUSED_23994]
[UNUSED_23995]
[UNUSED_23996]
[UNUSED_23997]
[UNUSED_23998]
[UNUSED_23999]
[UNUSED_24000]
[UNUSED_24001]
[UNUSED_24002]
[UNUSED_24003]
[UNUSED_24004]
[UNUSED_24005]
[UNUSED_24006]
[UNUSED_24007]
[UNUSED_24008]
[UNUSED_24009]
[UNUSED_24010]
[UNUSED_24011]
[UNUSED_24012]
[UNUSED_24013]
[UNUSED_24014]
[UNUSED_24015]
[UNUSED_24016]
[UNUSED_24017]
[UNUSED_24018]
[UNUSED_24019]
[UNUSED_24020]
[UNUSED_24021]
[UNUSED_24022]
[UNUSED_24023]
[UNUSED_24024]
[UNUSED_24025]
[UNUSED_24026]
[UNUSED_24027]
[UNUSED_24028]
[UNUSED_24029]
[UNUSED_24030]
[UNUSED_24031]
[UNUSED_24032]
[UNUSED_24033]
[UNUSED_24034]
[UNUSED_24035]
[UNUSED_24036]
[UNUSED_24037]
[UNUSED_24038]
[UNUSED_24039]
[UNUSED_24040]
[UNUSED_24041]
[UNUSED_24042]
[UNUSED_24043]
[UNUSED_24044]
[UNUSED_24045]
[UNUSED_24046]
[UNUSED_24047]
[UNUSED_24048]
[UNUSED_24049]
[UNUSED_24050]
[UNUSED_24051]
[UNUSED_24052]
[UNUSED_24053]
[UNUSED_24054]
[UNUSED_24055]
[UNUSED_24056]
[UNUSED_24057]
[UNUSED_24058]
[UNUSED_24059]
[UNUSED_24060]
[UNUSED_24061]
[UNUSED_24062]
[UNUSED_24063]
[UNUSED_24064]
[UNUSED_24065]
[UNUSED_24066]
[UNUSED_24067]
[UNUSED_24068]
[UNUSED_24069]
[UNUSED_24070]
[UNUSED_24071]
[UNUSED_24072]
[UNUSED_24073]
[UNUSED_24074]
[UNUSED_24075]
[UNUSED_24076]
[UNUSED_24077]
[UNUSED_24078]
[UNUSED_24079]
[UNUSED_24080]
[UNUSED_24081]
[UNUSED_24082]
[UNUSED_24083]
[UNUSED_24084]
[UNUSED_24085]
[UNUSED_24086]
[UNUSED_24087]
[UNUSED_24088]
[UNUSED_24089]
[UNUSED_24090]
[UNUSED_24091]
[UNUSED_24092]
[UNUSED_24093]
[UNUSED_24094]
[UNUSED_24095]
[UNUSED_24096]
[UNUSED_24097]
[UNUSED_24098]
[UNUSED_24099]
[UNUSED_24100]
[UNUSED_24101]
[UNUSED_24102]
[UNUSED_24103]
[UNUSED_24104]
[UNUSED_24105]
[UNUSED_24106]
[UNUSED_24107]
[UNUSED_24108]
[UNUSED_24109]
[UNUSED_24110]
[UNUSED_24111]
[UNUSED_24112]
[UNUSED_24113]
[UNUSED_24114]
[UNUSED_24115]
[UNUSED_24116]
[UNUSED_24117]
[UNUSED_24118]
[UNUSED_24119]
[UNUSED_24120]
[UNUSED_24121]
[UNUSED_24122]
[UNUSED_24123]
[UNUSED_24124]
[UNUSED_24125]
[UNUSED_24126]
[UNUSED_24127]
[UNUSED_24128]
[UNUSED_24129]
[UNUSED_24130]
[UNUSED_24131]
[UNUSED_24132]
[UNUSED_24133]
[UNUSED_24134]
[UNUSED_24135]
[UNUSED_24136]
[UNUSED_24137]
[UNUSED_24138]
[UNUSED_24139]
[UNUSED_24140]
[UNUSED_24141]
[UNUSED_24142]
[UNUSED_24143]
[UNUSED_24144]
[UNUSED_24145]
[UNUSED_24146]
[UNUSED_24147]
[UNUSED_24148]
[UNUSED_24149]
[UNUSED_24150]
[UNUSED_24151]
[UNUSED_24152]
[UNUSED_24153]
[UNUSED_24154]
[UNUSED_24155]
[UNUSED_24156]
[UNUSED_24157]
[UNUSED_24158]
[UNUSED_24159]
[UNUSED_24160]
[UNUSED_24161]
[UNUSED_24162]
[UNUSED_24163]
[UNUSED_24164]
[UNUSED_24165]
[UNUSED_24166]
[UNUSED_24167]
[UNUSED_24168]
[UNUSED_24169]
[UNUSED_24170]
[UNUSED_24171]
[UNUSED_24172]
[UNUSED_24173]
[UNUSED_24174]
[UNUSED_24175]
[UNUSED_24176]
[UNUSED_24177]
[UNUSED_24178]
[UNUSED_24179]
[UNUSED_24180]
[UNUSED_24181]
[UNUSED_24182]
[UNUSED_24183]
[UNUSED_24184]
[UNUSED_24185]
[UNUSED_24186]
[UNUSED_24187]
[UNUSED_24188]
[UNUSED_24189]
[UNUSED_24190]
[UNUSED_24191]
[UNUSED_24192]
[UNUSED_24193]
[UNUSED_24194]
[UNUSED_24195]
[UNUSED_24196]
[UNUSED_24197]
[UNUSED_24198]
[UNUSED_24199]
[UNUSED_24200]
[UNUSED_24201]
[UNUSED_24202]
[UNUSED_24203]
[UNUSED_24204]
[UNUSED_24205]
[UNUSED_24206]
[UNUSED_24207]
[UNUSED_24208]
[UNUSED_24209]
[UNUSED_24210]
[UNUSED_24211]
[UNUSED_24212]
[UNUSED_24213]
[UNUSED_24214]
[UNUSED_24215]
[UNUSED_24216]
[UNUSED_24217]
[UNUSED_24218]
[UNUSED_24219]
[UNUSED_24220]
[UNUSED_24221]
[UNUSED_24222]
[UNUSED_24223]
[UNUSED_24224]
[UNUSED_24225]
[UNUSED_24226]
[UNUSED_24227]
[UNUSED_24228]
[UNUSED_24229]
[UNUSED_24230]
[UNUSED_24231]
[UNUSED_24232]
[UNUSED_24233]
[UNUSED_24234]
[UNUSED_24235]
[UNUSED_24236]
[UNUSED_24237]
[UNUSED_24238]
[UNUSED_24239]
[UNUSED_24240]
[UNUSED_24241]
[UNUSED_24242]
[UNUSED_24243]
[UNUSED_24244]
[UNUSED_24245]
[UNUSED_24246]
[UNUSED_24247]
[UNUSED_24248]
[UNUSED_24249]
[UNUSED_24250]
[UNUSED_24251]
[UNUSED_24252]
[UNUSED_24253]
[UNUSED_24254]
[UNUSED_24255]
[UNUSED_24256]
[UNUSED_24257]
[UNUSED_24258]
[UNUSED_24259]
[UNUSED_24260]
[UNUSED_24261]
[UNUSED_24262]
[UNUSED_24263]
[UNUSED_24264]
[UNUSED_24265]
[UNUSED_24266]
[UNUSED_24267]
[UNUSED_24268]
[UNUSED_24269]
[UNUSED_24270]
[UNUSED_24271]
[UNUSED_24272]
[UNUSED_24273]
[UNUSED_24274]
[UNUSED_24275]
[UNUSED_24276]
[UNUSED_24277]
[UNUSED_24278]
[UNUSED_24279]
[UNUSED_24280]
[UNUSED_24281]
[UNUSED_24282]
[UNUSED_24283]
[UNUSED_24284]
[UNUSED_24285]
[UNUSED_24286]
[UNUSED_24287]
[UNUSED_24288]
[UNUSED_24289]
[UNUSED_24290]
[UNUSED_24291]
[UNUSED_24292]
[UNUSED_24293]
[UNUSED_24294]
[UNUSED_24295]
[UNUSED_24296]
[UNUSED_24297]
[UNUSED_24298]
[UNUSED_24299]
[UNUSED_24300]
[UNUSED_24301]
[UNUSED_24302]
[UNUSED_24303]
[UNUSED_24304]
[UNUSED_24305]
[UNUSED_24306]
[UNUSED_24307]
[UNUSED_24308]
[UNUSED_24309]
[UNUSED_24310]
[UNUSED_24311]
[UNUSED_24312]
[UNUSED_24313]
[UNUSED_24314]
[UNUSED_24315]
[UNUSED_24316]
[UNUSED_24317]
[UNUSED_24318]
[UNUSED_24319]
[UNUSED_24320]
[UNUSED_24321]
[UNUSED_24322]
[UNUSED_24323]
[UNUSED_24324]
[UNUSED_24325]
[UNUSED_24326]
[UNUSED_24327]
[UNUSED_24328]
[UNUSED_24329]
[UNUSED_24330]
[UNUSED_24331]
[UNUSED_24332]
[UNUSED_24333]
[UNUSED_24334]
[UNUSED_24335]
[UNUSED_24336]
[UNUSED_24337]
[UNUSED_24338]
[UNUSED_24339]
[UNUSED_24340]
[UNUSED_24341]
[UNUSED_24342]
[UNUSED_24343]
[UNUSED_24344]
[UNUSED_24345]
[UNUSED_24346]
[UNUSED_24347]
[UNUSED_24348]
[UNUSED_24349]
[UNUSED_24350]
[UNUSED_24351]
[UNUSED_24352]
[UNUSED_24353]
[UNUSED_24354]
[UNUSED_24355]
[UNUSED_24356]
[UNUSED_24357]
[UNUSED_24358]
[UNUSED_24359]
[UNUSED_24360]
[UNUSED_24361]
[UNUSED_24362]
[UNUSED_24363]
[UNUSED_24364]
[UNUSED_24365]
[UNUSED_24366]
[UNUSED_24367]
[UNUSED_24368]
[UNUSED_24369]
[UNUSED_24370]
[UNUSED_24371]
[UNUSED_24372]
[UNUSED_24373]
[UNUSED_24374]
[UNUSED_24375]
[UNUSED_24376]
[UNUSED_24377]
[UNUSED_24378]
[UNUSED_24379]
[UNUSED_24380]
[UNUSED_24381]
[UNUSED_24382]
[UNUSED_24383]
[UNUSED_24384]
[UNUSED_24385]
[UNUSED_24386]
[UNUSED_24387]
[UNUSED_24388]
[UNUSED_24389]
[UNUSED_24390]
[UNUSED_24391]
[UNUSED_24392]
[UNUSED_24393]
[UNUSED_24394]
[UNUSED_24395]
[UNUSED_24396]
[UNUSED_24397]
[UNUSED_24398]
[UNUSED_24399]
[UNUSED_24400]
[UNUSED_24401]
[UNUSED_24402]
[UNUSED_24403]
[UNUSED_24404]
[UNUSED_24405]
[UNUSED_24406]
[UNUSED_24407]
[UNUSED_24408]
[UNUSED_24409]
[UNUSED_24410]
[UNUSED_24411]
[UNUSED_24412]
[UNUSED_24413]
[UNUSED_24414]
[UNUSED_24415]
[UNUSED_24416]
[UNUSED_24417]
[UNUSED_24418]
[UNUSED_24419]
[UNUSED_24420]
[UNUSED_24421]
[UNUSED_24422]
[UNUSED_24423]
[UNUSED_24424]
[UNUSED_24425]
[UNUSED_24426]
[UNUSED_24427]
[UNUSED_24428]
[UNUSED_24429]
[UNUSED_24430]
[UNUSED_24431]
[UNUSED_24432]
[UNUSED_24433]
[UNUSED_24434]
[UNUSED_24435]
[UNUSED_24436]
[UNUSED_24437]
[UNUSED_24438]
[UNUSED_24439]
[UNUSED_24440]
[UNUSED_24441]
[UNUSED_24442]
[UNUSED_24443]
[UNUSED_24444]
[UNUSED_24445]
[UNUSED_24446]
[UNUSED_24447]
[UNUSED_24448]
[UNUSED_24449]
[UNUSED_24450]
[UNUSED_24451]
[UNUSED_24452]
[UNUSED_24453]
[UNUSED_24454]
[UNUSED_24455]
[UNUSED_24456]
[UNUSED_24457]
[UNUSED_24458]
[UNUSED_24459]
[UNUSED_24460]
[UNUSED_24461]
[UNUSED_24462]
[UNUSED_24463]
[UNUSED_24464]
[UNUSED_24465]
[UNUSED_24466]
[UNUSED_24467]
[UNUSED_24468]
[UNUSED_24469]
[UNUSED_24470]
[UNUSED_24471]
[UNUSED_24472]
[UNUSED_24473]
[UNUSED_24474]
[UNUSED_24475]
[UNUSED_24476]
[UNUSED_24477]
[UNUSED_24478]
[UNUSED_24479]
[UNUSED_24480]
[UNUSED_24481]
[UNUSED_24482]
[UNUSED_24483]
[UNUSED_24484]
[UNUSED_24485]
[UNUSED_24486]
[UNUSED_24487]
[UNUSED_24488]
[UNUSED_24489]
[UNUSED_24490]
[UNUSED_24491]
[UNUSED_24492]
[UNUSED_24493]
[UNUSED_24494]
[UNUSED_24495]
[UNUSED_24496]
[UNUSED_24497]
[UNUSED_24498]
[UNUSED_24499]
[UNUSED_24500]
[UNUSED_24501]
[UNUSED_24502]
[UNUSED_24503]
[UNUSED_24504]
[UNUSED_24505]
[UNUSED_24506]
[UNUSED_24507]
[UNUSED_24508]
[UNUSED_24509]
[UNUSED_24510]
[UNUSED_24511]
[UNUSED_24512]
[UNUSED_24513]
[UNUSED_24514]
[UNUSED_24515]
[UNUSED_24516]
[UNUSED_24517]
[UNUSED_24518]
[UNUSED_24519]
[UNUSED_24520]
[UNUSED_24521]
[UNUSED_24522]
[UNUSED_24523]
[UNUSED_24524]
[UNUSED_24525]
[UNUSED_24526]
[UNUSED_24527]
[UNUSED_24528]
[UNUSED_24529]
[UNUSED_24530]
[UNUSED_24531]
[UNUSED_24532]
[UNUSED_24533]
[UNUSED_24534]
[UNUSED_24535]
[UNUSED_24536]
[UNUSED_24537]
[UNUSED_24538]
[UNUSED_24539]
[UNUSED_24540]
[...]
